{
  "ĠRoy": 8462,
  "Ġtally": 20944,
  "AMP": 26762,
  "Ġprocedures": 9882,
  "Ġfights": 10293,
  "scape": 7686,
  "meric": 792,
  "Ġlegalize": 25235,
  "Ġcalcul": 5648,
  "Ġconditioning": 19598,
  "ĠGroups": 30043,
  "olve": 6437,
  "Ġ2006": 4363,
  "ĠMurder": 28362,
  "respons": 14206,
  "frame": 15200,
  "ovable": 23819,
  "Ġsiblings": 18567,
  "Ġaccus": 8393,
  "CC": 4231,
  "Ġtermed": 24512,
  "Ġpraise": 11943,
  "ĠHate": 27512,
  "ĠGift": 30676,
  "Quest": 17272,
  "Ġterminology": 27397,
  "ĠHoward": 8741,
  "Ġimpress": 13829,
  "AF": 9923,
  "Ġdownright": 26104,
  "Engine": 28581,
  "Ġunlock": 15650,
  "ĠJD": 31522,
  "oil": 21655,
  "Ġinstructor": 22086,
  "Ġbehaving": 31882,
  "Ġwounded": 9648,
  "ĠShaw": 15928,
  "Ġtall": 7386,
  "Ġexplo": 5737,
  "Ġcorps": 16227,
  "Ġrag": 31884,
  "duc": 6298,
  "ranked": 23660,
  "mans": 9239,
  "Ġtar": 12063,
  "ĠSample": 28742,
  "Link": 12947,
  "itted": 16728,
  "Ġwartime": 28197,
  "24": 3183,
  "CBS": 19112,
  "Ġwr": 1596,
  "aton": 13634,
  "Ġyielded": 23893,
  "ks": 546,
  "ĠEmploy": 14168,
  "ĠCardinal": 22628,
  "Ġyoungest": 15690,
  "gers": 4861,
  "Ġperceptions": 21056,
  "Running": 28886,
  "patrick": 23642,
  "Ġprestige": 26581,
  "etheless": 10951,
  "Ġbanks": 4808,
  "Ġtranslations": 26701,
  "Ġreside": 26218,
  "ĠStein": 12452,
  "Ġcholesterol": 23154,
  "Ne": 5358,
  "Ġaccountability": 14428,
  "OTOS": 28692,
  "EMA": 23650,
  "Ġevidence": 2275,
  "Ġ23": 2962,
  "Ġwander": 27405,
  "Ġ300": 6232,
  "Ġinvented": 13401,
  "ĠSale": 17503,
  "Ġpersu": 9470,
  "ĠEz": 22990,
  "Ġwithdrawn": 20905,
  "Ġcon": 320,
  "ĠBenson": 28919,
  "Ġincumbent": 17474,
  "ixel": 11188,
  "Ġmisunderstood": 29724,
  "ew": 518,
  "ĠFixed": 18417,
  "Mark": 10188,
  "Ġkilograms": 30649,
  "itutes": 15463,
  "Ġ260": 27144,
  "Ð½Ð¸": 24880,
  "ĠSaskat": 20229,
  "Ġincluded": 2908,
  "Ġcompiled": 13397,
  "Ġsorry": 8502,
  "Ġspecialists": 20384,
  "Ġallege": 27331,
  "Ġ02": 14753,
  "inental": 18724,
  "apa": 30009,
  "Ġwines": 27424,
  "Ġgeneral": 2237,
  "Ġalmost": 1856,
  "ĠKingdom": 7785,
  "ĠHoy": 27509,
  "Co": 7733,
  "Ġhusband": 4907,
  "you": 6645,
  "Ġrelate": 14635,
  "Ġrace": 2823,
  "ĠFunction": 25736,
  "Ġproduce": 4178,
  "Ġbubble": 12085,
  "ĠMM": 13345,
  "Nusra": 30562,
  "prus": 22754,
  "Ġconsolidation": 28028,
  "Ġoccurs": 10093,
  "ĠDur": 10429,
  "ĠPrin": 12791,
  "plates": 20359,
  "inally": 3233,
  "Ġdrums": 21479,
  "Ġpant": 25002,
  "Ġfolding": 29800,
  "vent": 3083,
  "Ġunclear": 8149,
  "rr": 26264,
  "of": 590,
  "Ġcites": 18895,
  "FR": 14831,
  "cair": 30110,
  "ine": 468,
  "Ġmeet": 1641,
  ".]": 10760,
  "forward": 11122,
  "Ġfixed": 6756,
  "omez": 24708,
  "Ġ65": 7460,
  "IST": 12356,
  "Ġconnected": 5880,
  "Ġgained": 7815,
  "Ġ(+": 17624,
  "Luck": 29630,
  "Ġincom": 16624,
  "ĠErnest": 27921,
  "Ġfence": 13304,
  "ĠRio": 12543,
  "Ġintegral": 17692,
  "Ġintentions": 13230,
  "Ġbarbar": 24609,
  "ĠFreud": 28112,
  "Robert": 16807,
  "Ġdun": 20825,
  "ĠHil": 23909,
  "gregated": 25307,
  "bread": 29909,
  "ĠMacBook": 25856,
  "Ġgrain": 13648,
  "Ġ:": 2042,
  "Ġlocated": 5333,
  "hurst": 28693,
  "ĠKoh": 21147,
  "Ġstoring": 21546,
  "ĠTrad": 27157,
  "Ġhers": 27320,
  "essa": 20875,
  "ĠRadio": 8021,
  "death": 21826,
  "Ġidea": 1864,
  "Ġjets": 16850,
  "Ġagencies": 5146,
  "Ġcopper": 16489,
  "nick": 22913,
  "Ġextingu": 27551,
  "Ġreps": 21262,
  "unt": 2775,
  "apt": 2825,
  "Ġasking": 4134,
  "ĠAlger": 21071,
  "ĠNas": 19255,
  "Ġcatches": 16327,
  "Pac": 16720,
  "Ġinterval": 21030,
  "Ġimminent": 17388,
  "day": 700,
  "CH": 4627,
  "Ġnecessity": 14904,
  "Ġassaults": 18676,
  "tex": 11276,
  "pit": 14328,
  "Ġindividuals": 3770,
  "ĠMVP": 14737,
  "acs": 20265,
  "Ġreplacement": 8820,
  "ĠRF": 20917,
  "Ġhate": 4993,
  "®": 107,
  "Ġlose": 4133,
  "ait": 4596,
  "Ġcoding": 18290,
  "ĠOxford": 12144,
  "erers": 18661,
  "Ġathlete": 14143,
  "cho": 6392,
  "Ġarmed": 5958,
  "League": 20540,
  "Ã±": 9847,
  "becue": 27485,
  "Ġmour": 24775,
  "cial": 2456,
  "economic": 15503,
  "z": 90,
  "80": 3161,
  "semb": 4603,
  "Another": 5644,
  "Ġinvite": 13328,
  "Ġconstituted": 26088,
  "ĠAbrams": 26216,
  "ĠHTTP": 16747,
  "Ġstadium": 7973,
  "Ġlions": 27789,
  "Wednesday": 25672,
  "Ġmarker": 20318,
  "Ġembry": 18938,
  "Ġprestigious": 19330,
  "Ġguide": 6540,
  "bial": 20205,
  "Ġformer": 1550,
  "Box": 18252,
  "Ġconspiracy": 8527,
  "Ġ135": 23443,
  "ĠÏ": 13273,
  "Ġthreads": 16735,
  "Ġevaluation": 13889,
  "ĠKry": 31062,
  "ĠTab": 18118,
  "Priv": 23369,
  "Ġtranslating": 31821,
  "Ġpolitically": 9181,
  "ĠTyson": 23501,
  "Ġweekday": 25059,
  "Ash": 26201,
  "Ġdeported": 21208,
  "³": 112,
  "Ġbarg": 10948,
  "Ġdisturbed": 23342,
  "Ġeconomically": 16441,
  "ĠRichmond": 14673,
  "Ġnuanced": 27187,
  "ĠHut": 29363,
  "Ġcheapest": 26383,
  "isations": 31630,
  "ĠBry": 8015,
  "ĠBuddh": 18605,
  "Ġintriguing": 16445,
  "Ġcreditors": 25595,
  "imeter": 15869,
  "scient": 21381,
  "Ġpreservation": 20772,
  "PD": 5645,
  "Ġdeadly": 9340,
  "Ġdelivers": 16316,
  "Ġeruption": 28839,
  "ĠAchie": 28215,
  "Ġending": 7127,
  "gr": 848,
  "Ġnoteworthy": 25321,
  "Ġheed": 30434,
  "ĠElizabeth": 9907,
  "ĠMeans": 30256,
  "ĠDrop": 17134,
  "iman": 21862,
  "Whatever": 18410,
  "Ġfederally": 28257,
  "Ġwoke": 18260,
  "Ġlet": 1268,
  "appa": 25296,
  "powered": 12833,
  "Ġsubstit": 24396,
  "Ġprowess": 27330,
  "Ġroom": 2159,
  "£": 97,
  "Ġimp": 793,
  "Ġlobbyists": 18668,
  "file": 11984,
  "phis": 17170,
  "Ġempire": 12790,
  "Above": 29882,
  "rection": 9418,
  "Ġaides": 15242,
  "Ġ1965": 15884,
  "Ġarrivals": 28325,
  "Ġplatform": 3394,
  "Ġsame": 943,
  "Ġ117": 25901,
  "Ġ1938": 24282,
  "Ġunethical": 30946,
  "ĠBridge": 9231,
  "ĠFab": 13588,
  "ailing": 11670,
  "Ġsquirrel": 29361,
  "Ġë": 18931,
  "left": 9789,
  "Ġinformed": 7268,
  "Ġtunnels": 19670,
  "eer": 29270,
  "artisan": 14349,
  "Ġmainly": 7568,
  "engers": 8085,
  "ĠReader": 24516,
  "Ġliv": 15582,
  "Craft": 20819,
  "Ġretaliation": 20357,
  "Ġarrival": 9868,
  "Ġexistential": 22299,
  "Ġapple": 17954,
  "rio": 21995,
  "especially": 15302,
  "inery": 14712,
  "Ġsuspended": 8554,
  "Ġmurdered": 11650,
  "ĠMode": 15028,
  "utz": 24015,
  "ĠWorlds": 24519,
  "ĠCritics": 24370,
  "Ġasthma": 27751,
  "Ġadvisers": 16220,
  "Ġbecause": 710,
  "Ġdur": 22104,
  "Ġread": 1055,
  "ĠKan": 16326,
  "Ġpre": 623,
  "Ġdefinitive": 15339,
  "ĠTr": 782,
  "Ġchaotic": 20346,
  "aird": 27676,
  "Broad": 29263,
  "Ġstriking": 9471,
  "Report": 25426,
  "Ġnewspaper": 5878,
  "ĠSherlock": 26676,
  "ĠStarbucks": 19966,
  "ĠClo": 31247,
  "ĠErd": 15388,
  "Ġconfessed": 22947,
  "atively": 9915,
  "Ġslowed": 17768,
  "actly": 23000,
  "ĠLis": 23964,
  "Ġfault": 7861,
  "Ġslips": 31742,
  "ĠPengu": 18291,
  "Ġbog": 18725,
  "Ġairst": 16687,
  "ĠHaley": 25421,
  "Ġsuburban": 16142,
  "Ġdeb": 1526,
  "Ġsandwiches": 27107,
  "pr": 1027,
  "Ġelev": 7553,
  "Ġremaining": 5499,
  "pick": 30541,
  "Ġserv": 1067,
  "ĠFry": 23829,
  "aneously": 26792,
  "Ġdragged": 16563,
  "Ġtrek": 26785,
  "second": 13100,
  "Ġcontempt": 16677,
  "</": 7194,
  "ĠPark": 3045,
  "arag": 28196,
  "alach": 28209,
  "Ġscholarships": 29550,
  "ĠGirl": 9196,
  "mn": 12529,
  "Ġworker": 7562,
  "Charl": 22353,
  "Ġbarn": 25514,
  "ĠNichols": 31593,
  "threatening": 23049,
  "Ġloose": 9290,
  "icted": 5137,
  "Ġprayer": 11968,
  "ĠEvening": 31653,
  "ĠOw": 11884,
  "inf": 8079,
  "Ġnewsp": 4791,
  "Ġwh": 301,
  "IV": 5210,
  "Ġbasic": 3982,
  "ĠAug": 2473,
  "Ġrenting": 29061,
  "Ġsalaries": 14765,
  "ĠIniti": 16081,
  "Ġtravel": 2899,
  "elong": 17894,
  "Ġdefaults": 31756,
  "Ġcapitalist": 13157,
  "Ġhelicop": 9921,
  "ĠAustralians": 18585,
  "ĠBristol": 20597,
  "uous": 5803,
  "Ġseasons": 5408,
  "Ġrealizes": 23793,
  "Ġexpans": 17956,
  "Following": 11435,
  "Ġfifth": 7083,
  "ĠSew": 31551,
  "Ġtherm": 23322,
  "eto": 29588,
  "gerald": 22222,
  "lock": 7287,
  "ĠFPS": 28574,
  "Ġstif": 31661,
  "ast": 430,
  "Pass": 16995,
  "ynchronous": 29716,
  "Ġtales": 17757,
  "Ġalcoholic": 25909,
  "Ġdomination": 21164,
  "ĠPharm": 23444,
  "Ġshark": 17030,
  "ta": 6725,
  "Ġdeficit": 9051,
  "result": 31196,
  "ettings": 20327,
  "Ġdairy": 16788,
  "Ġmilk": 8110,
  "Ġfalsely": 21320,
  "ĠHist": 6349,
  "Ġmanage": 6334,
  "Ġod": 14957,
  "Ġstabbed": 18861,
  "dec": 12374,
  "Ġburned": 10928,
  "Ġprotects": 17797,
  "unity": 11007,
  "Ġbefore": 846,
  "Ġwhite": 2340,
  "illes": 19995,
  "hours": 30965,
  "airs": 3478,
  "Ġgest": 10177,
  "asm": 14090,
  "Ġstare": 25096,
  "ĠAdmiral": 24783,
  "Ġset": 896,
  "ĠBat": 6072,
  "ĠJr": 6742,
  "Ġsums": 18944,
  "ĠCU": 29480,
  "ĠRavens": 17260,
  "ĠCambod": 21382,
  "Ġintroduction": 9035,
  "Ġdisappointing": 13651,
  "Ġcath": 29046,
  "Ġpave": 19822,
  "Ġbud": 2955,
  "Ġencompass": 18675,
  "ĠCap": 3765,
  "Rel": 6887,
  "Ġcoinc": 9656,
  "uggage": 29268,
  "linked": 24604,
  "ĠBucks": 27055,
  "Ġdismissal": 21985,
  "ĠStrateg": 17724,
  "Ġund": 3098,
  "aturing": 30329,
  "Ġdebate": 3475,
  "dri": 8680,
  "Ġsy": 798,
  "Ġclarity": 14911,
  "Ġnotor": 18765,
  "Ġanimal": 5159,
  "Ġsing": 1598,
  "Up": 5325,
  "ĠThat": 1197,
  "lves": 28021,
  "Ġrefusal": 15106,
  "oven": 16411,
  "Review": 17776,
  "Ġhungry": 14233,
  "ketch": 23260,
  "Ġdisgu": 17084,
  "ĠLac": 22939,
  "Ġsystematic": 17072,
  "Ġexhibition": 14502,
  "Ġdioxide": 14219,
  "ema": 20850,
  "ff": 453,
  "idepress": 26054,
  "Ġvariant": 15874,
  "Ġhobb": 29227,
  "ĠPrinceton": 19787,
  "ĠSpaceX": 20098,
  "Ġgal": 8795,
  "ĠRegardless": 20754,
  "osh": 3871,
  "Ġflames": 17210,
  "ĠJames": 3405,
  "Ġcommunicated": 26749,
  "food": 18777,
  "Ġarrive": 8922,
  "ĠPle": 19382,
  "Ġlobby": 8290,
  "tab": 24176,
  "Ġpleading": 28159,
  "M": 45,
  "Ġdime": 29543,
  "Ġcarriers": 14226,
  "Ġbreak": 2222,
  "Ġprotests": 6299,
  "Ġotherwise": 4890,
  "Wed": 22820,
  "Ġshock": 7802,
  "oping": 14124,
  "An": 1990,
  "Ġdiffering": 26307,
  "Ġmust": 1431,
  "Ġlibertarians": 26418,
  "Ġmum": 22537,
  "rog": 5447,
  "Ġchoice": 3423,
  "Ġselfish": 18916,
  "Ġaligned": 17588,
  "later": 29012,
  "Ġintervened": 27993,
  "ĠPu": 22695,
  "site": 17401,
  "ĠStick": 29878,
  "Ġperceive": 19323,
  "Ġhotel": 6656,
  "Ġadvancing": 17704,
  "Finally": 10031,
  "umers": 25642,
  "Ġnevertheless": 18525,
  "ĠLisa": 14371,
  "instein": 10099,
  "Ġunited": 14817,
  "Ġrefuses": 16601,
  "ĠConst": 4809,
  "ĠMyanmar": 23354,
  "assador": 8949,
  "urring": 14412,
  "oid": 2270,
  "nik": 13856,
  "ĠAllison": 28903,
  "u": 85,
  "be": 1304,
  "ĠLou": 4135,
  "ISS": 21027,
  "ĠâĢ": 319,
  "Ġhome": 1212,
  "ĠShel": 14466,
  "Ġautonom": 9523,
  "Ġbigger": 4976,
  "Ġrecent": 1263,
  "Ġcomplicated": 7395,
  "Ġpostp": 17977,
  "ĠCurtis": 21131,
  "ĠCavaliers": 24755,
  "Ġindividual": 1977,
  "Ġsponsors": 14939,
  "Ġpeculiar": 21996,
  "nis": 18801,
  "96": 7953,
  "ĠAdventures": 26948,
  "ĠGeographic": 28494,
  "ania": 4979,
  "Ġconv": 2099,
  "uras": 15559,
  "Ġadd": 729,
  "Ġrescued": 17558,
  "Ġmandate": 11386,
  "ĠLor": 26403,
  "ĠSwe": 24684,
  "ĠStra": 15238,
  "ĠCole": 10234,
  "Ġdanger": 3300,
  "ourcing": 23490,
  "goal": 27971,
  "Ġcelebrates": 23291,
  "Ġsuspic": 10527,
  "hot": 8584,
  "Ġstopped": 4800,
  "Ġthanked": 22278,
  "ocracies": 26619,
  "Ġsignificant": 2259,
  "Ġconsumer": 6267,
  "================": 13137,
  "Wild": 26683,
  "eca": 29041,
  "eri": 31245,
  "Ġtoler": 7820,
  "Phil": 17105,
  "EV": 24229,
  "https": 8052,
  "ĠSergey": 29915,
  "ĠPot": 8551,
  "Ġfame": 14153,
  "ĠEDT": 28417,
  "Ġstatues": 23734,
  "Ġmu": 30482,
  "Ġstepping": 14721,
  "ĠGro": 10193,
  "ĠReality": 22682,
  "ennis": 9187,
  "Ġgone": 3454,
  "Ġbunk": 21624,
  "Ġresolving": 29050,
  "BP": 20376,
  "Ġviewed": 8474,
  "])": 16179,
  "Ġsomething": 1132,
  "pelled": 14197,
  "aron": 7310,
  "ĠMurdoch": 20176,
  "Ġlit": 1060,
  "vel": 610,
  "Ġver": 3439,
  "ĠImage": 6402,
  "Ġguarding": 31957,
  "ĠAmericas": 22304,
  "ĠSchwartz": 24368,
  "Ġextracted": 21007,
  "ĠEd": 2285,
  "Ġmean": 1545,
  "Ġagreed": 4238,
  "enko": 24983,
  "BN": 10815,
  "ĠSpell": 28945,
  "%)": 6611,
  "Ġtop": 1241,
  "Ġminim": 15522,
  "ĠAnton": 8283,
  "ĠAshton": 31994,
  "Ġincorporating": 26494,
  "Ġmonument": 14593,
  "ĠOntario": 9093,
  "ĠCriminal": 16224,
  "ĠArmed": 16314,
  "Ġkidnapped": 20484,
  "gun": 7669,
  "Ġpitchers": 19378,
  "ĠBase": 9262,
  "Ġearthquakes": 24589,
  "cÃ©": 26908,
  "Ġleader": 3020,
  "ĠBlu": 11763,
  "Ġcorporate": 5166,
  "Ġmount": 4115,
  "Ġfeather": 17471,
  "Ġatoms": 20691,
  "ĠBro": 1900,
  "Ġpivot": 28791,
  "Need": 25331,
  "Ġprogrammes": 19832,
  "Ġupl": 26327,
  "Ġvisas": 20135,
  "Ġrelaxing": 28331,
  "ĠCapitol": 10482,
  "Ġanswered": 9943,
  "Ġsidelines": 20471,
  "Ġwaved": 27201,
  "td": 28122,
  "Ġandroid": 22782,
  "Ġfocus": 2441,
  "Ġreceiving": 6210,
  "Rus": 28982,
  "Ġambassador": 11982,
  "Ġpain": 2404,
  "ĠEngineers": 26247,
  "ĠCastro": 16770,
  "acon": 8373,
  "ĠBowman": 31284,
  "Ġdump": 8816,
  "story": 12523,
  "Ġpiles": 28009,
  "Ġcorrobor": 27299,
  "ĠHeath": 21353,
  "Ġrevolt": 21695,
  "rev": 19185,
  "ĠPuerto": 12752,
  "ĠKenneth": 21146,
  "Ġeverybody": 6088,
  "Ġmilitant": 14544,
  "Ġcompassion": 13649,
  "github": 23123,
  "Ġincomplete": 18786,
  "Ġnarrowly": 21084,
  "Ġtalk": 1405,
  "Ġavatar": 31499,
  "Nick": 21055,
  "ĠVictory": 22696,
  "Ġmicrow": 23957,
  "Reports": 30661,
  "Ġsubscriber": 29499,
  ".-": 8537,
  "ĠAz": 9574,
  "ĠâĤ¬": 8535,
  "Ġcircumstances": 6470,
  "Ġdrills": 22556,
  "Ġdetect": 4246,
  "Ġvisa": 13507,
  "ĠBrief": 22593,
  "cl": 1211,
  "ĠFriend": 9944,
  "ĠEX": 13075,
  "Ġagrees": 13424,
  "Ġsmear": 28964,
  "ĠCeltics": 20293,
  "Ġau": 19564,
  "Ġtowers": 16695,
  "31": 5200,
  "Ġdedication": 19619,
  "ĠScott": 4021,
  "Ġadren": 27520,
  "ĠMakes": 31319,
  "violence": 31527,
  "zilla": 23863,
  "reviewed": 28498,
  "iliary": 31785,
  "ĠWat": 6792,
  "usable": 29193,
  "ĠBitcoins": 28415,
  "ĠGame": 4552,
  "ĠMush": 28595,
  "olar": 9865,
  "Ġadorable": 27746,
  "oyle": 18168,
  "ĠEs": 8296,
  "Ġrecurring": 21536,
  "Ġcolumnist": 16816,
  "Ġfamiliar": 4981,
  "Ġundertaking": 24713,
  "Ġdispro": 13244,
  "åĲ": 26771,
  "Ġsore": 19430,
  "Ġgossip": 27462,
  "Ġsimultaneous": 27818,
  "Ġrethink": 27844,
  "ĠBerlin": 9611,
  "Ġpodium": 21046,
  "rating": 7439,
  "ĠRandy": 18529,
  "Ġconceived": 19572,
  "Ġdatas": 17967,
  "VC": 18790,
  "Ġquarter": 3219,
  "ĠFoley": 27312,
  "ĠHerbert": 24566,
  "cht": 17778,
  "ĠMs": 6269,
  "Ġse": 330,
  "ĠString": 14580,
  "ĠEarlier": 16342,
  "Ġprinter": 20505,
  "Ġindigenous": 13778,
  "sm": 7209,
  "astery": 28286,
  "ĠMatter": 15824,
  "Ġcorridors": 28307,
  "ĠLuxem": 26797,
  "ĠQaeda": 13712,
  "ĠCris": 15965,
  "Ġfounding": 13201,
  "Ġmilitary": 1960,
  "Ġexpenditure": 22738,
  "Ġhapp": 1041,
  "Ġable": 1412,
  "ems": 7808,
  "Direct": 15218,
  "ĠExperiment": 30546,
  "Ġcelebrate": 9315,
  "owell": 12541,
  "Ġapproached": 9220,
  "Ġhopeful": 12775,
  "Ġslowdown": 26419,
  "Neill": 22546,
  "Ġgrim": 17081,
  "Ġwhistle": 12917,
  "ays": 523,
  "Ġang": 3711,
  "Ġprefix": 28497,
  "ĠPam": 21842,
  "onse": 2438,
  "ĠISP": 28277,
  "Ġathlet": 6111,
  "ĠPun": 14735,
  "Ġjurisd": 11336,
  "Ġbowl": 9908,
  "kind": 11588,
  "Ġrenewable": 11510,
  "Ġbol": 11172,
  "Ġinsign": 23491,
  "Ġaccess": 1866,
  "ĠComplex": 21950,
  "Ġbleeding": 17163,
  "threat": 17248,
  "Ġtraditionally": 12921,
  "Ġindict": 13372,
  "Ġcontaining": 7888,
  "ĠMcCon": 11811,
  "ĠRub": 5362,
  "ĠDuffy": 26875,
  "ĠCompar": 31674,
  "ĠUniversity": 1793,
  "Ġli": 17047,
  "ĠLucky": 29525,
  "ĠHolder": 18483,
  "Ġ54": 9641,
  "imi": 24570,
  "Ġdrought": 14280,
  "anded": 12244,
  "Ġabsurd": 11280,
  "ĠBean": 26187,
  "Prote": 28179,
  "rupal": 31342,
  "Ġeas": 1350,
  "win": 4284,
  "Ġrains": 27361,
  "Ġpathway": 20614,
  "amins": 28083,
  "Ġdating": 9799,
  "odes": 4328,
  "Ġscandals": 21201,
  "ĠPreview": 26576,
  "Ġdamp": 22511,
  "acts": 9459,
  "Ġhardest": 15152,
  "ĠJulius": 27909,
  "redict": 13725,
  "ĠTennessee": 9987,
  "Ġuphe": 30793,
  "ĠRhode": 21667,
  "20": 1130,
  "ĠHawaiian": 26917,
  "owski": 10214,
  "ĥ": 182,
  "marked": 21549,
  "ĠWould": 10920,
  "Ġchalk": 26665,
  "First": 5437,
  "Ġholes": 10496,
  "Ġbuck": 10194,
  "Ġantip": 28527,
  "·": 116,
  "ĠAlpha": 16196,
  "Ġbacked": 7926,
  "Ġtact": 5526,
  "Ġannouncements": 20298,
  "Ġhit": 1896,
  "amboo": 29900,
  "Ġenvisioned": 24688,
  "Ġpunt": 27137,
  "ĠBirmingham": 15653,
  "ĠIslamic": 4384,
  "osate": 31562,
  "ĠIN": 5691,
  "RP": 18994,
  "Ġsimplicity": 19985,
  "ĠCelsius": 29459,
  "Ġencountered": 13177,
  "Ġadvocate": 10440,
  "ĠKum": 17042,
  "Ġperspective": 5823,
  "ĠVersion": 19093,
  "NBA": 27235,
  "ĠDemon": 29169,
  "Ġgrass": 8121,
  "ĠWA": 19198,
  "Ġdesigner": 10336,
  "RS": 8018,
  "ĠSloven": 27166,
  "Ġvarieties": 19325,
  "erk": 19962,
  "Ġcomprised": 19233,
  "Ġwarrior": 19618,
  "lings": 20247,
  "metal": 31722,
  "Ġpark": 3554,
  "Ġsacrificed": 27124,
  "ĠViktor": 29014,
  "ĠFI": 25277,
  "Ġ1600": 28655,
  "Ġnerv": 8683,
  "Ġracket": 31140,
  "rugged": 22824,
  "Ġbullpen": 24345,
  "alker": 22958,
  "Ġlots": 5626,
  "Ġblock": 2430,
  "Ġdiscontin": 20852,
  "Mat": 14513,
  "Ġmetaphor": 20667,
  "Ġinappropriate": 13957,
  "Ġende": 15139,
  "ĠMountains": 21061,
  "Ġshelf": 17577,
  "Ġfra": 20643,
  "rera": 19507,
  "hesda": 30359,
  "Ġrepeats": 30237,
  "ucci": 21118,
  "Similarly": 23414,
  "ĠNational": 2033,
  "Ġemploys": 21135,
  "Ġinstitute": 19772,
  "Pacific": 19792,
  "odi": 24204,
  "Ġthing": 1394,
  "Ġtapes": 21509,
  "cliffe": 30967,
  "ĠSor": 13935,
  "Ġgroceries": 31867,
  "Ġbombard": 29651,
  "terns": 29624,
  "Ġmining": 8625,
  "Top": 10153,
  "ĠAmb": 12004,
  "ĠCom": 1040,
  "ĠWendy": 24967,
  "ĠHence": 17937,
  "Ġbiting": 29981,
  "lit": 17915,
  "Ġoverdose": 24624,
  "Ġclim": 8779,
  "priv": 16102,
  "Ġevenly": 22465,
  "Ð°ÑĤ": 27941,
  "bank": 17791,
  "ĠWonder": 14498,
  "Ġcommuters": 27603,
  "ĠSH": 10542,
  "Ġunanim": 13964,
  "roud": 5173,
  "Ġcub": 13211,
  "ĠJab": 23120,
  "Ġways": 2563,
  "ĠJean": 10034,
  "ÑĮ": 13617,
  "oup": 11069,
  "Ġpostseason": 17022,
  "Ġdiscriminatory": 23373,
  "Ġreacting": 28147,
  "ĠPeople": 4112,
  "Ġsecond": 1180,
  "ĠNe": 2551,
  "Ġch": 399,
  "Ġca": 1799,
  "ĠRel": 5662,
  "Ġfro": 8940,
  "Ġplasma": 19636,
  "Ġpenned": 26638,
  "Ġbury": 27097,
  "Ġ1913": 30878,
  "Ġcrore": 17283,
  "Ġaunt": 25079,
  "Ġoutfielder": 31642,
  "ĠJer": 4371,
  "256": 22905,
  "ĠDebian": 29097,
  "would": 16253,
  "ĠApollo": 18758,
  "ĠDmit": 27964,
  "Ġreproductive": 17317,
  "ĠBuff": 8833,
  "magic": 28303,
  "ifi": 24798,
  "ĠAre": 4651,
  "ĠSantorum": 24169,
  "ĠHoll": 10056,
  "ĠForeign": 7464,
  "ĠHannah": 24190,
  "files": 26314,
  "ĠALL": 14896,
  "Ġdeficits": 18132,
  "Ġvulnerabilities": 19464,
  "Ġnerd": 29457,
  "Ġsnow": 6338,
  "Ġunderstandably": 28779,
  "Ġtooth": 15835,
  "aza": 6061,
  "ĠRegister": 18384,
  "ĠPatricia": 28106,
  "Ġpersist": 15140,
  "ĠSadd": 17703,
  "Ġunstable": 19813,
  "Ġdodge": 29473,
  "ĠSerbian": 30988,
  "Ġincurred": 30024,
  "Ġrampant": 21291,
  "Ġemperor": 25299,
  "Ġmarkets": 5071,
  "Ġtemplates": 25568,
  "ĠRochester": 23545,
  "Ġopera": 20876,
  "ĠICC": 26152,
  "Ġplays": 4595,
  "Ġciv": 31946,
  "ĠCheck": 8548,
  "ĠGaming": 17095,
  "Ġmodules": 14436,
  "Episode": 29569,
  "opal": 28832,
  "enta": 30576,
  "licted": 26992,
  "Ġmicrowave": 27956,
  "Ġdisclosure": 12547,
  "Ġrides": 16149,
  "Eight": 26385,
  "icularly": 19721,
  "Ġturt": 28285,
  "Ġingredient": 19626,
  "Ġturbine": 30711,
  "280": 28398,
  "Josh": 21103,
  "Ġsubjected": 14678,
  "oji": 26798,
  "ĠChart": 26587,
  "Ġexcluding": 24026,
  "ĠOrigin": 23398,
  "long": 5985,
  "rule": 27532,
  "Det": 15412,
  "Ġcontractor": 15594,
  "ĠShapiro": 28577,
  "----": 1535,
  "ĠSioux": 31026,
  "rade": 26754,
  "script": 15796,
  "Ġbenchmark": 17267,
  "Ġcategories": 9621,
  "ò": 173,
  "Ġresearc": 3434,
  "fighting": 25625,
  "Ġgovernance": 14458,
  "ĠWhat": 1885,
  "ĠAlp": 10748,
  "lated": 23934,
  "cc": 488,
  "ocaly": 13676,
  "ockey": 6563,
  "âĦ": 12247,
  "Produ": 20271,
  "Ġvenue": 11957,
  "Ġswings": 24973,
  "Ġentrepreneur": 15630,
  "Ġdumping": 25056,
  "Ġaccordance": 16390,
  "Ġvessels": 14874,
  "Ġsimplified": 25158,
  "ĠAth": 13290,
  "Ġmesh": 22117,
  "Ġpursuing": 12963,
  "gram": 1209,
  "aving": 2601,
  "Ġdefenders": 12839,
  "ĠFF": 20613,
  "Ġcloak": 31984,
  "ĠPotter": 16212,
  "oon": 2110,
  "Dav": 8046,
  "Ġarist": 25924,
  "formed": 12208,
  "Ġorders": 6710,
  "Ġ].": 29477,
  "ĠVA": 13996,
  "Ġfired": 5310,
  "ĠAtlantic": 8907,
  "ĠAaron": 10708,
  "mer": 538,
  "Ġevil": 6961,
  "openhagen": 22749,
  "ĠLog": 10868,
  "Ġferry": 23913,
  "Ġ1200": 29020,
  "Ġminor": 3829,
  "ĠEurope": 1682,
  "ĠAlan": 10356,
  "131": 28781,
  "Ġvaried": 15313,
  "Ġillnesses": 21426,
  "ĠQuad": 27266,
  "ĠHack": 18349,
  "ĠGRE": 25959,
  "ign": 510,
  "Ġautonomous": 14026,
  "Bill": 15478,
  "men": 3472,
  "Ġflying": 7163,
  "Sher": 25040,
  "cept": 1005,
  "ĠMayweather": 31060,
  "able": 530,
  "ĠDJ": 12444,
  "ĠWool": 24079,
  "ĠMin": 1831,
  "Ġwatching": 4459,
  "Ġjer": 10530,
  "ĠImages": 5147,
  "ĠKirk": 12691,
  "endas": 28333,
  "Ġcamps": 10217,
  "Ġrepublic": 13844,
  "Ġnerves": 24846,
  "Ġgr": 929,
  "Ġsocialism": 16458,
  "Ú": 149,
  "NOTE": 30519,
  "Ġparticip": 2791,
  "ourced": 24995,
  "Ġlivest": 17899,
  "Ġlabels": 13427,
  "ĠPete": 15592,
  "Ġunknown": 6823,
  "omorph": 24235,
  "Ġriders": 11548,
  "Ġnormal": 3900,
  "err": 11501,
  "Ġborough": 25638,
  "ĠCare": 7425,
  "umns": 14971,
  "Ġswimming": 13740,
  "pse": 13671,
  "Ġdemonstrations": 14051,
  "Ġconsultant": 13808,
  "dden": 4931,
  "TY": 16791,
  "Ġdishon": 30548,
  "ĠText": 12521,
  "ĠGood": 5007,
  "ilia": 16670,
  "ĠLar": 22070,
  "Ġpreferred": 9990,
  "Ġpeninsula": 23800,
  "ISH": 23547,
  "Ġwrote": 2114,
  "Ġprest": 14014,
  "Nov": 23589,
  "Ġdirt": 13500,
  "ĠArrow": 20857,
  "atta": 23333,
  "ĠDodgers": 18437,
  "Ġresume": 13924,
  "Ġrab": 15811,
  "ĠGene": 12043,
  "iere": 10895,
  "Ġnonpartisan": 31638,
  "Ġ1967": 13848,
  "ĠBig": 4334,
  "ĠWar": 1982,
  "ality": 1504,
  "Ġconfigured": 23433,
  "Ġspend": 3931,
  "ĠCaliforn": 28495,
  "133": 26890,
  "eth": 3072,
  "Ġbrackets": 30477,
  "Ġcivilians": 8386,
  "Ġcapturing": 18680,
  "ĠGH": 30843,
  "Ġdi": 2234,
  "Ġ>>>": 19729,
  "Ġdiscusses": 19510,
  "Ġoperational": 12491,
  "Ã": 126,
  "shake": 31049,
  "ienced": 24707,
  "Ġrespir": 22899,
  "Ġsearches": 14176,
  "Russia": 13616,
  "effect": 28013,
  "Ġspinal": 26457,
  "ĠArchae": 30436,
  "heard": 21238,
  "Ruby": 27468,
  "ĠDamon": 28829,
  "ĠTrevor": 21646,
  "chedel": 20007,
  "ĠWater": 7222,
  "Ġkinds": 6496,
  "lient": 14372,
  "Ġadversary": 30499,
  "ias": 5238,
  "DI": 16176,
  "ĠERA": 15957,
  "wich": 10949,
  "ourt": 2619,
  "New": 3707,
  "hour": 8425,
  "Ġsporting": 14879,
  "Ġcoming": 2069,
  "Ġpseudo": 22815,
  "ĠPump": 31307,
  "Ã¡": 4885,
  "lund": 31290,
  "INS": 24482,
  "Ġexams": 25125,
  "aper": 1991,
  "osition": 2727,
  "Ġuncovered": 15999,
  "Ġnumerous": 5800,
  "ĠSens": 15980,
  "was": 9274,
  "Ġarchaeological": 26223,
  "cracy": 19313,
  "ĠHash": 24369,
  "ĠInf": 6702,
  "Ġdisband": 30002,
  "ĠPractice": 26647,
  "Mrs": 23976,
  "ionally": 5902,
  "ĠPhoenix": 10119,
  "winning": 11768,
  "gradation": 24971,
  "Ġassoci": 2687,
  "FOR": 20686,
  "uccess": 11142,
  "Ġpic": 7050,
  "ß": 154,
  "Ġtremendous": 10661,
  "ĠCEOs": 25129,
  "onds": 11897,
  "Ġdealings": 24743,
  "ĠMissouri": 10428,
  "ĠCrown": 13004,
  "Ġpaths": 13496,
  "ĠWinner": 30618,
  "Ġinsight": 10167,
  "Ġliberals": 13031,
  "Ġaddicts": 27828,
  "ake": 497,
  "Ġcatch": 4717,
  "pract": 25102,
  "Ġstoryline": 19753,
  "ole": 2433,
  "Ġcows": 19745,
  "Ġtrave": 8984,
  "Ġwants": 2918,
  "Ġbon": 6362,
  "Has": 20422,
  "A": 33,
  "Ġtrans": 984,
  "ĠSoft": 11528,
  "Ġmiscon": 24535,
  "Z": 58,
  "ĠMagic": 9600,
  "Ġacknowledges": 19738,
  "USE": 19854,
  "aughed": 14976,
  "Ġmistakenly": 28360,
  "ĠBa": 8759,
  "ophobic": 18655,
  "fortunately": 6268,
  "ĠAM": 4419,
  "ĠCommunications": 13158,
  "Editor": 17330,
  "ĠThomson": 25684,
  "Ġjail": 5354,
  "Ġvictim": 2850,
  "ĠAssault": 26442,
  "Ġevolutionary": 15022,
  "ĠDEC": 29128,
  "ĠAA": 19895,
  "Ġnumbered": 25663,
  "ĠVenice": 27392,
  "chard": 28612,
  "Ġpsychedel": 22412,
  "Whenever": 29246,
  "ĠHolt": 26596,
  "Ġestim": 3587,
  "Ġcounty": 7385,
  "ĠStanford": 11296,
  "Ġextrem": 7474,
  "ÑĢ": 6550,
  "Ð": 139,
  "Search": 24938,
  "ĠCBS": 8571,
  "2003": 20671,
  "Ġroyal": 13802,
  "Ġquotes": 12478,
  "verse": 4920,
  "Ġundocumented": 16997,
  "Ġdistributions": 24876,
  "Ġstructural": 12832,
  "su": 17193,
  "Ġchanges": 2393,
  "Ġfluids": 30416,
  "Ġaxis": 18694,
  "ģ": 180,
  "ĠOEM": 31703,
  "pol": 16079,
  "iform": 7009,
  "nings": 19553,
  "BY": 19717,
  "Ġwishing": 23918,
  "Ġrepairs": 20539,
  "ĠSher": 5997,
  "Ġdecreasing": 23427,
  "Ġteeth": 10581,
  "Ġoptical": 18517,
  "ĠSamuel": 15613,
  "Ġcollector": 22244,
  "mong": 25548,
  "ived": 1509,
  "Ġtestimony": 9115,
  "ounce": 8822,
  "Ġrobbery": 15936,
  "ghazi": 16826,
  "ĠWizard": 25245,
  "Ġcompartment": 29204,
  "ĠMind": 11416,
  "Ġconditions": 3545,
  "Ġrepr": 31297,
  "Ġmessed": 31174,
  "Ġbounced": 27063,
  "Ġdecade": 4544,
  "plate": 8773,
  "Ġdetention": 11206,
  "Ġcompliant": 30155,
  "main": 12473,
  "Fix": 28186,
  "Ġinhabit": 14343,
  "Ġproper": 1972,
  "guy": 22368,
  "ĠRevolution": 8557,
  "mod": 7189,
  "emption": 19573,
  "ĠCont": 3051,
  "ĠOrd": 19044,
  "Ġintimidating": 25463,
  "oulos": 16906,
  "Ġhas": 410,
  "Ġtalents": 16632,
  "ĠCharleston": 22823,
  "ĠPf": 30920,
  "Ġpromotes": 18746,
  "design": 25544,
  "Ġwomen": 1354,
  "Ġstudents": 2199,
  "Ġhandsome": 23413,
  "Ġadjusting": 22179,
  "ĠNHS": 15809,
  "Ġprofoundly": 22855,
  "ĠLit": 26978,
  "ĠRifle": 25254,
  "Ġraid": 12132,
  "Ġlarge": 1489,
  "Ġsli": 10334,
  "Ġderiv": 16733,
  "88": 5855,
  "ĠShell": 18624,
  "ĠEnd": 7059,
  "Ġprocessor": 12707,
  "Ġactor": 7177,
  "Ġstyles": 12005,
  "Ġrelative": 3484,
  "USA": 13438,
  "Ġsubmer": 29996,
  "Ġfinanced": 23641,
  "ĠCarr": 17273,
  "Ġthwart": 20600,
  "Ġsed": 9912,
  "ise": 702,
  "According": 3742,
  "umbo": 24944,
  "Ġpodcast": 10394,
  "Ġsatisfy": 16828,
  "Ġvictory": 4422,
  "irth": 3488,
  "Ġquart": 29857,
  "Ġobey": 24945,
  "Ġpiled": 29219,
  "Ġdude": 17949,
  "Ġchop": 30474,
  "ĠCollect": 15495,
  "Ġdeepest": 22530,
  "Brexit": 31685,
  "Ġq": 15674,
  "inez": 15430,
  "Ġconfronting": 25676,
  "illion": 912,
  "ader": 5108,
  "Ġlegit": 5942,
  "Ġbeating": 9964,
  "demand": 24842,
  "lan": 7790,
  "brew": 12272,
  "Ġmidfielder": 13510,
  "ĠTesla": 10733,
  "Ġeighteen": 31032,
  "ĠMut": 17538,
  "Ġsoft": 2661,
  "ibl": 10502,
  "Ġonion": 22804,
  "zone": 11104,
  "Ġitem": 3344,
  "ĠKatie": 22541,
  "ĠFe": 5448,
  "Ġrevisions": 30443,
  "Ġgeared": 27177,
  "isle": 17978,
  "prop": 22150,
  "owed": 7140,
  "Ġtaxes": 5002,
  "download": 27720,
  "bol": 31465,
  "asters": 7124,
  "ĠSit": 22307,
  "Ġnodded": 20508,
  "Ġimportance": 6327,
  "Ġworking": 1521,
  "Ġquery": 14201,
  "Î»": 28372,
  "Ġcensus": 18311,
  "Ġcrumbling": 30841,
  "Ġcease": 11791,
  "Ġbiography": 21316,
  "Ġfac": 1603,
  "Ġstaffer": 21984,
  "rast": 3153,
  "Ġredesigned": 31741,
  "Ġ256": 23802,
  "Ġtriggering": 24018,
  "ĠJong": 15425,
  "ok": 444,
  "Ġusually": 3368,
  "ĠMov": 12689,
  "ĠComic": 17107,
  "ogg": 12937,
  "Ġdevastation": 28622,
  "ĠBill": 3381,
  "Ġinitiated": 15601,
  "Ġflurry": 29387,
  "st": 260,
  "Ġabove": 2224,
  "spot": 23109,
  "governmental": 27185,
  "ĠStudios": 13263,
  "ñ": 172,
  "Ġrhetorical": 30222,
  "particularly": 26902,
  "ĠAD": 7657,
  "ate": 325,
  "Ġcollaboration": 10154,
  "ĠFIR": 27386,
  "Ġmourning": 28787,
  "OU": 4054,
  "Ġrole": 2178,
  "Ġreception": 14449,
  "Ġmole": 9185,
  "ĠForum": 14569,
  "Ġoverseas": 9312,
  "zero": 23768,
  "VEL": 26059,
  "ĠHur": 9257,
  "Ġsitcom": 26031,
  "Ġletters": 7201,
  "Ġdefeated": 9657,
  "Ġantib": 11099,
  "Ġstirred": 31535,
  "34": 4518,
  "Ġrecru": 7655,
  "ĠMoreover": 11085,
  "scope": 31771,
  "sch": 20629,
  "Ġflashes": 27728,
  "Ġretreat": 13087,
  "wheel": 22496,
  "Ġdeposited": 29342,
  "Ġfixture": 23975,
  "Ġwoes": 25473,
  "uffer": 21033,
  "Ġanswer": 3190,
  "g": 71,
  "Ġvaccine": 11994,
  "ĠEmma": 19006,
  "Ġvault": 20933,
  "Ġreassure": 30161,
  "aughs": 16318,
  "ĠFreedom": 8632,
  "ĠUncle": 24761,
  "ACH": 22249,
  "Ġoptimized": 23673,
  "Ġcomfortable": 6558,
  "ĠCircuit": 12598,
  "Ġ68": 11497,
  "Ġpurity": 25865,
  "Ġviscer": 30564,
  "2": 18,
  "Ġwildly": 17320,
  "ĠGo": 1467,
  "................................": 28471,
  "________________________________": 15849,
  "oufl": 27616,
  "fig": 22585,
  "Ġid": 5639,
  "Ġobstacle": 19327,
  "oking": 5680,
  "wer": 14081,
  "ngth": 20118,
  "Ġstarter": 11938,
  "xual": 6743,
  "Ġputs": 6808,
  "Ġ210": 26533,
  "otti": 22034,
  "Ġlivestock": 21303,
  "Ġphosph": 19907,
  "ĠTaking": 20889,
  "ĠCongressional": 12046,
  "Ġflour": 10690,
  "mur": 28660,
  "wh": 1565,
  "rael": 1920,
  "Ġhandled": 11150,
  "Ġcompanion": 16308,
  "Ġmerc": 13657,
  "eworthy": 22960,
  "2014": 8486,
  "ĠRec": 3880,
  "Ġgods": 14108,
  "Ġfitness": 12719,
  "Ġhoping": 6433,
  "Ġfeminism": 16827,
  "TH": 5369,
  "front": 7678,
  "Change": 25339,
  "ĠCalgary": 14178,
  "Journal": 21953,
  "Ġdirectly": 3393,
  "Ġoutputs": 27583,
  "icultural": 22046,
  "MD": 16611,
  "Ġsubscription": 13779,
  "rete": 7401,
  "inem": 6452,
  "Ġlicense": 6880,
  "astings": 26879,
  "({": 28243,
  "ĠFeatures": 23256,
  "Researchers": 19281,
  "productive": 22440,
  "Ġspouses": 29100,
  "ross": 1161,
  "ĠPic": 16609,
  "guards": 20246,
  "Ġchall": 2122,
  "ocracy": 4759,
  "Ġ92": 14988,
  "ĠConserv": 5561,
  "Ġcompanions": 22640,
  "Ġmelee": 24817,
  "ructed": 18596,
  "ĠPLAY": 31681,
  "Ġunsupp": 17872,
  "oirs": 31701,
  "Ġcameo": 31733,
  "Ġdark": 3546,
  "Ġstatute": 17234,
  "ount": 566,
  "Ġroughly": 6261,
  "furt": 24847,
  "Ġrecorded": 5523,
  "oes": 3491,
  "ĠSold": 15729,
  "ĠJordan": 7126,
  "Ġproductivity": 11667,
  "encing": 8991,
  "Ġaccusations": 11408,
  "Ġcolle": 5156,
  "ĠPerez": 18641,
  "ĠFlorida": 4038,
  "Ġconfirmed": 4152,
  "Ġanniversary": 9381,
  "Ġdividend": 31369,
  "Ġ1922": 30267,
  "ĠAmnesty": 23097,
  "ĪĴ": 7115,
  "Ġpray": 15296,
  "ĠCave": 25070,
  "Ġ118": 26515,
  "Ġpremature": 17820,
  "Ġpap": 19428,
  "lihood": 10717,
  "Se": 6612,
  "Ġleg": 1095,
  "Ġawarded": 9544,
  "ĠPluto": 25763,
  "ĠCS": 9709,
  "ammed": 8592,
  "Ġwaste": 5820,
  "Ġsuggests": 4944,
  "Ġfiltered": 29177,
  "Ġtranscription": 29359,
  "Ġvolley": 28676,
  "Ġposed": 12659,
  "ĠSpider": 13941,
  "ĠStream": 19085,
  "Ġhelping": 5027,
  "Christ": 9654,
  "iber": 1784,
  "Ġspr": 7682,
  "Ġfig": 2124,
  "Ġfire": 2115,
  "oly": 4282,
  "Ġadvocating": 19621,
  "Ġplagued": 21987,
  "ĠGoing": 19074,
  "free": 5732,
  "Ġvirtual": 6603,
  "ov": 669,
  "obil": 23536,
  "Ġinsurgency": 25412,
  "Exit": 30516,
  "Ġescalate": 30298,
  "ĠVox": 29784,
  "Posted": 15040,
  "21": 3823,
  "raeus": 30217,
  "Ġmuseum": 9111,
  "vag": 28568,
  "ty": 806,
  "ouch": 8167,
  "ļ": 205,
  "ĠN": 367,
  "allas": 6750,
  "ĠSil": 4695,
  "Ġnominee": 7990,
  "Ġfurniture": 16526,
  "Cr": 14541,
  "Ġrespiratory": 24127,
  "icker": 19072,
  "ĠCensus": 19260,
  "Ġconceal": 22452,
  "Ġ190": 24659,
  "Ġinsistence": 24206,
  "Ġï¿½": 21781,
  "Ġminimal": 10469,
  "âĨ": 31850,
  "ĠDoug": 12807,
  "Ġprevailed": 31252,
  "ĠSubst": 30540,
  "Ġupheld": 20809,
  "Ġash": 12101,
  "R": 50,
  "ĠDi": 6626,
  "ĠColumb": 6132,
  "ĠGhana": 26551,
  "Ġair": 1532,
  "Ġdate": 3533,
  "oria": 11716,
  "Ġshopping": 8960,
  "tered": 3401,
  "touch": 29093,
  "ith": 300,
  "ĠJoker": 25829,
  "âĢĿ;": 19591,
  "ĠRefuge": 22109,
  "ĠSpotify": 23773,
  "anti": 14727,
  "kok": 26794,
  "vig": 30831,
  "Ġintermitt": 29741,
  "ĠAuthority": 10312,
  "Ġstormed": 27288,
  "Ġphenomen": 6812,
  "Ġfunc": 28562,
  "Ġhum": 1237,
  "ĠTokyo": 11342,
  "ĠKenya": 17181,
  "Ġstatutory": 24064,
  "Ġvacation": 13580,
  "Ġproduct": 1740,
  "Ġmerged": 22031,
  "Ġdeleg": 7080,
  "ĠArgentina": 13679,
  "center": 19695,
  "odus": 23405,
  "Ġcaveat": 30694,
  "Ġsh": 388,
  "Ġsupposed": 3967,
  "ĠMonthly": 30665,
  "Ġsqu": 2730,
  "Ġtilt": 25347,
  "dr": 10483,
  "âĪĴ": 13393,
  "Ġjustify": 10638,
  "Ġinnovations": 20420,
  "Ġtrailing": 23755,
  "Ġdangerous": 4499,
  "Ġauthority": 5154,
  "league": 16933,
  "Ġreserved": 10211,
  "ĠKrist": 13219,
  "ĠResults": 21343,
  "Ġcataly": 18923,
  "ogn": 2269,
  "115": 21199,
  "posts": 25622,
  "cribed": 13297,
  "Ġambition": 17544,
  "ĠDeb": 9525,
  "Ġinmate": 23685,
  "Ġalphabet": 24146,
  "rill": 19013,
  "Ġneeded": 2304,
  "Ġnoise": 8382,
  "Ġillustration": 19770,
  "ĠTu": 16568,
  "man": 714,
  "prot": 27917,
  "Ġgrilled": 30734,
  "ĠReed": 14024,
  "ipal": 23790,
  "ĠAN": 10047,
  "17": 2280,
  "Ġliberated": 29646,
  "ked": 7434,
  "Ġpatients": 3996,
  "Ġinflicted": 26425,
  "Cat": 25958,
  "Ġakin": 19567,
  "Ġ129": 29322,
  "Hz": 9781,
  "Ġultra": 13463,
  "forcement": 12988,
  "Ġworried": 6892,
  "ĠSingle": 19748,
  "Create": 21170,
  "Cons": 8889,
  "ĠXen": 25876,
  "Ġplaces": 3879,
  "Ġlocal": 1747,
  "Ġproducts": 3241,
  "Ġjour": 26208,
  "Hor": 31237,
  "Ġspecies": 4368,
  "prime": 26896,
  "ĠFro": 12544,
  "Ġanytime": 16655,
  "Ġisolate": 25483,
  "Ġworries": 15548,
  "Ġmonster": 10597,
  "plex": 13046,
  "ĠPreston": 29032,
  "forth": 24646,
  "ĠDuck": 22813,
  "osa": 7918,
  "Ġmetabolic": 24109,
  "DF": 21205,
  "av": 580,
  "Ġescape": 6993,
  "ĠHidden": 29538,
  "INT": 19375,
  "stay": 28352,
  "ĠMorgan": 9877,
  "Ġinsult": 9909,
  "ĠFuj": 30621,
  "oval": 8525,
  "Ġtro": 3432,
  "techn": 21341,
  "regor": 21349,
  "Ġbackbone": 27355,
  "umni": 21968,
  "Ġ175": 24010,
  "ilo": 27521,
  "rots": 25488,
  "Ġanalyzed": 14787,
  "sized": 12612,
  "ABLE": 29143,
  "Ġtariffs": 25825,
  "engine": 18514,
  "ĠEllen": 22654,
  "SS": 5647,
  "Ġcustom": 2164,
  "ĠExc": 27306,
  "Ġitems": 4489,
  "ĠMD": 12739,
  "ĠBav": 29941,
  "thus": 31536,
  "Ġanother": 1128,
  "Interestingly": 26431,
  "amples": 18594,
  "********************************": 31413,
  "Ġdesper": 7084,
  "omm": 2381,
  "ĠAlexand": 16572,
  "Ġvigil": 14505,
  "Ġde": 321,
  "dis": 6300,
  "Ġairport": 7828,
  "Ġquestioning": 11902,
  "Ġpipeline": 9286,
  "ĠMarin": 30181,
  "phan": 11644,
  "ĠAndrew": 5845,
  "ĠPlease": 5440,
  "Ġtransmit": 15847,
  "ĠVermont": 13517,
  "Ġversion": 2283,
  "Ġreclaim": 20120,
  "ĠOp": 9866,
  "ĠMick": 25982,
  "Ġintellect": 7072,
  "ĠBrewing": 15675,
  "owl": 4881,
  "ĠNCAA": 12052,
  "Ġremarked": 21541,
  "unningham": 27108,
  "est": 341,
  "149": 28425,
  "Ġeasy": 2577,
  "ruce": 24239,
  "ans": 449,
  "ades": 2212,
  "Ġexpired": 21255,
  "ĠMiliband": 26964,
  "Ġunfair": 9895,
  "ĠBo": 3508,
  "Ġrings": 14842,
  "Ġparticipated": 12545,
  "ĠMatters": 26741,
  "ĠResponse": 23448,
  "ĠHolmes": 15838,
  "Exp": 21866,
  "Ġguru": 29818,
  "INGTON": 14339,
  "Ġterritorial": 18955,
  "Ġeffic": 17749,
  "Ġsoaring": 25438,
  "Ġcontentious": 20610,
  "ĠREUTERS": 13118,
  "Ġbump": 11402,
  "ĠCrime": 9711,
  "ĠOrion": 28369,
  "Ġdictators": 16756,
  "ĠWong": 23359,
  "ĠReynolds": 19527,
  "Ġmundane": 27143,
  "Ġdreamed": 24700,
  "erate": 27268,
  "ĠErin": 28679,
  "ĠEverybody": 20332,
  "ocial": 9884,
  "Ġreproduced": 31798,
  "Ġnonsense": 16064,
  "Ġphenomenon": 9298,
  "Ġhouses": 7205,
  "ted": 981,
  "ĠLil": 21526,
  "âĸ": 6890,
  "WW": 17297,
  "ĠHB": 25280,
  "Ġpoliceman": 26637,
  "txt": 23556,
  "Ġmonitored": 18129,
  "eals": 9526,
  "Anyway": 22332,
  "ABC": 20988,
  "Ġcalculation": 19127,
  "rd": 4887,
  "ĠNigel": 24077,
  "Ġreligion": 5181,
  "Ġmicroscope": 30738,
  "renched": 19922,
  "Ġrabbit": 23244,
  "Ġrhythm": 17157,
  "Ġadvertise": 29594,
  "Ġgraduates": 16336,
  "01": 5592,
  "ĠTheatre": 13364,
  "Ġinvestigations": 9244,
  "oga": 10190,
  "Ġoptimism": 18146,
  "aren": 5082,
  "Ġunconscious": 16905,
  "Fall": 30922,
  "Ġblockchain": 10124,
  "Ġcombination": 6229,
  "ĠArch": 6780,
  "ĠEnough": 31488,
  "Ġkit": 6274,
  "Ġdistraction": 20435,
  "Ġcommission": 4959,
  "Ġrestricted": 11637,
  "Dis": 10396,
  "Ġcatalogue": 30880,
  "ĠAut": 6511,
  "pri": 4083,
  "em": 390,
  "ĠLC": 26963,
  "OW": 5350,
  "ĠUS": 1206,
  "Ġcluster": 13268,
  "archs": 29986,
  "Meanwhile": 7876,
  "ĠMahmoud": 26723,
  "rained": 13070,
  "ĠShak": 29650,
  "hist": 10354,
  "Ġexposure": 7550,
  "Ġwarning": 6322,
  "ĠSpons": 31426,
  "Ġpassenger": 10765,
  "ĠClock": 26743,
  "Group": 20911,
  "ĠRolling": 19961,
  "gage": 21419,
  "Ġnavigating": 30800,
  "Ġlosing": 5151,
  "Ġroaming": 29277,
  "ĠGle": 30751,
  "Ġelephants": 22721,
  "ÈĽ": 25574,
  "square": 20425,
  "Ġmothers": 11569,
  "Ġconception": 20488,
  ".": 14,
  "ĠSgt": 18684,
  "Ġjuven": 17487,
  "Ġstrategy": 4092,
  "ĠDal": 11349,
  "{\\": 14921,
  "Ġinit": 2221,
  "Ġswung": 27786,
  "oice": 9590,
  "ĠSharon": 25409,
  "Ġfour": 1257,
  "inite": 11209,
  "ĠMurray": 9922,
  "Ġminus": 19389,
  "ĠÏĦ": 31131,
  "yrrha": 25055,
  "Ġdropping": 10783,
  "Ġresidency": 25939,
  "Ġdebris": 15093,
  "Gal": 28011,
  "ĠJersey": 6943,
  "ĠMedicaid": 11302,
  "Black": 10821,
  "Ġwaits": 28073,
  "Ġeste": 22004,
  "ĠEnter": 6797,
  "Ġmonth": 1069,
  "Ġleverage": 13360,
  "lay": 14586,
  "Ġconsumers": 5568,
  "Ġunlocked": 22097,
  "Ġfond": 15094,
  "ĠBuddhist": 18289,
  "ĠAlleg": 24401,
  "ggest": 1733,
  "Ġham": 8607,
  "Ġcommons": 30475,
  "ĠJim": 4728,
  "Neil": 24500,
  "ĠDuncan": 15974,
  "ball": 1687,
  "Ġtouches": 17112,
  "ĠSaturn": 19604,
  "oring": 2371,
  "ained": 1459,
  "Ġ250": 9779,
  "ĠNH": 27780,
  "Ġbrows": 12765,
  "ĠMiz": 30671,
  "Ġma": 18196,
  "ĠBeyond": 14728,
  "Ġreceive": 3489,
  "È": 131,
  "Ġlovers": 19374,
  "Bas": 17341,
  "Ġships": 7879,
  "ĠEarl": 19324,
  "Ġmetaph": 12055,
  "Ġski": 15822,
  "Tor": 13820,
  "Ġdigest": 17104,
  "Ġfossil": 9782,
  "Ġpresented": 5254,
  "Ġfatigue": 20044,
  "ved": 1001,
  "ĠHeck": 29515,
  "));": 27881,
  "ĠColon": 15012,
  "punk": 29354,
  "Ġjumped": 10407,
  "ĠEnglish": 3590,
  "idered": 2982,
  "Ġpuzz": 9437,
  "Ġhope": 2416,
  "ĠHis": 2341,
  "ĠHIV": 10986,
  "Ġalgorithm": 11037,
  "ĠÂŃ": 17669,
  "br": 1658,
  "ĠPedro": 23079,
  "ools": 13406,
  "Ġredesign": 25460,
  "Tim": 14930,
  ".âĢĿ)": 22788,
  "emb": 25275,
  "ĠFinals": 17220,
  "Ġinjunction": 23039,
  "ĠIslam": 2803,
  "Europe": 13756,
  "coon": 29693,
  "2017": 10331,
  "Ġseven": 3133,
  "Ġoffspring": 20975,
  "itect": 5096,
  "Ġrid": 5284,
  "oody": 21520,
  "Ġmil": 1275,
  "Ġprovisions": 11143,
  "Ġdrug": 2282,
  "Ġcapacities": 30128,
  "Ġscal": 16725,
  "roy": 3505,
  "Ġstolen": 8895,
  "anguard": 26412,
  "Ġfavorite": 3877,
  "ĠWitness": 30245,
  "Ġnuts": 14149,
  "aucas": 23077,
  "Ġflexible": 12592,
  "Ġinsisting": 18601,
  "Ġlikewise": 21466,
  "ĠFirst": 3387,
  "rail": 29942,
  "Ġnep": 22504,
  "Ġyouthful": 31534,
  "ë": 166,
  "Ġcharacteristics": 10640,
  "apy": 13990,
  "ĠDru": 25716,
  "ĠCrus": 21371,
  "Ġont": 30389,
  "Ġofficers": 3220,
  "Ġchopped": 21490,
  "out": 403,
  "ciples": 7018,
  "PM": 8202,
  "Ġinsurgents": 23286,
  "ĠBreitbart": 14752,
  "Ġsets": 5764,
  "Ġ/>": 25705,
  "support": 26225,
  "oo": 3055,
  "ĠRecovery": 27311,
  "ĠBolt": 24590,
  "Ġescaping": 24518,
  "ocal": 4897,
  "ĠMySQL": 31200,
  "bus": 17788,
  "see": 4019,
  "hearted": 18093,
  "ĠBrexit": 9700,
  "Ġautobi": 24252,
  "Ġdiscs": 29311,
  "ĠArcher": 27348,
  "Ġconstituents": 17912,
  "ĠIvan": 19528,
  "Ġleaving": 4026,
  "Ġ107": 22678,
  "ĠList": 9209,
  "kel": 6523,
  "Ġdestroys": 28906,
  "Col": 7627,
  "ĠPupp": 30763,
  "Ġaffiliate": 15052,
  "Opp": 21861,
  "bat": 11063,
  "ĠGhost": 13122,
  "ETH": 28229,
  "Ġphotographers": 22591,
  "Ġimperial": 12319,
  "Ġmel": 7761,
  "went": 18067,
  "agement": 2940,
  "Ġrelig": 2449,
  "Est": 22547,
  "yrr": 24436,
  "ĠStory": 9556,
  "Ġillust": 6341,
  "Martin": 21617,
  "Ġepilepsy": 31880,
  "Ġassurances": 28591,
  "?]": 27737,
  "ĠER": 21794,
  "Ġ-->": 23213,
  "acious": 13807,
  "ML": 7148,
  "Ġrail": 5962,
  "ĠCe": 18977,
  "ĠDisc": 11863,
  "fc": 27227,
  "mt": 22409,
  "ravis": 15842,
  "Ġseparately": 15225,
  "com": 869,
  "PU": 6311,
  "Ġrice": 12112,
  "Ġterrifying": 16421,
  "one": 459,
  "Ġaffiliated": 17269,
  "Ġremembering": 23331,
  "ĠKaren": 17279,
  "million": 11230,
  "names": 14166,
  "ĠColomb": 13869,
  "esis": 13068,
  "Ġret": 1022,
  "Cut": 30079,
  "ĠON": 8378,
  "ĠClare": 20192,
  "ĠQU": 28802,
  "Ġsummarized": 30451,
  "ĠNormally": 31151,
  "Ġreinforced": 21359,
  "vie": 24584,
  "Ġcrus": 9859,
  "Ġrevelation": 15231,
  "Ġinterviewed": 10208,
  "Ġintu": 13694,
  "IES": 17952,
  "terrorism": 15695,
  "rue": 22703,
  "amber": 7784,
  "ĠWall": 4177,
  "ĠSie": 17607,
  "_{": 17227,
  "Ġappar": 17629,
  "inch": 8669,
  "sewhere": 27319,
  "Ġlively": 28509,
  "ĠOlymp": 5660,
  "ija": 28267,
  "Ġundisclosed": 26275,
  "Ultimately": 21092,
  "Ġcloset": 21773,
  "Ġhosp": 9249,
  "Ġinvisible": 15327,
  "Ġdoubt": 4452,
  "uman": 3984,
  "Ġnurt": 20826,
  "ĠSenior": 13514,
  "ĠISS": 28434,
  "Ġbusinessman": 15155,
  "ĠÐ½Ðµ": 30097,
  "avin": 20068,
  "Ġbas": 1570,
  "Ġpurp": 3333,
  "Ġattitude": 8622,
  "ĠBow": 10203,
  "Late": 24502,
  "otte": 10676,
  "Ġcamoufl": 29657,
  "ĠInitial": 30668,
  "Ġheightened": 21455,
  "Ġhistorical": 6224,
  "Ġra": 1610,
  "had": 16427,
  "ĠTsar": 26807,
  "Ġ1943": 22468,
  "Ġdebuted": 19316,
  "Ġwhat": 573,
  "Ġba": 27125,
  "Ġintolerance": 27219,
  "Ġbelieve": 1782,
  "Ġdefendant": 15570,
  "China": 11556,
  "Ġremembered": 11887,
  "ĠWillie": 24322,
  "itely": 3788,
  "Five": 17101,
  "hor": 16501,
  "Either": 28156,
  "Ġcouncillor": 29062,
  "Ġtunnel": 12352,
  "Ġmetric": 16046,
  "ournals": 18057,
  "Level": 21082,
  "ogether": 7772,
  "???": 26837,
  "Ġrun": 987,
  "Ġprotester": 26910,
  "Ġsubway": 15389,
  "Ġquota": 29501,
  "Ġjerseys": 28295,
  "Ã¡s": 22575,
  "Ġfier": 22727,
  "Ġnarratives": 21060,
  "Ġwage": 6805,
  "Ġintro": 18856,
  "ĠFilm": 11324,
  "Ġcoconut": 19828,
  "Ġexplosives": 18939,
  "Ġtouchdowns": 13668,
  "velt": 14999,
  "Ġalternatives": 12638,
  "Ġcontribut": 3605,
  "ĠKad": 27827,
  "Ġhadn": 7640,
  "Ġtransition": 5808,
  "ĠNy": 18722,
  "ĠRubin": 27112,
  "ĠCity": 2064,
  "iw": 31425,
  "Ġwal": 6746,
  "ĠKelley": 27238,
  "Ġlowered": 17734,
  "Ġendured": 20115,
  "ouk": 31912,
  "ocument": 9050,
  "gia": 6023,
  "GI": 19299,
  "ĠHak": 31114,
  "Ġhitter": 22895,
  "Ġranks": 8753,
  "Ġprocedural": 24071,
  "Ġbab": 9248,
  "Ġcoherent": 21898,
  "ĠDoct": 31353,
  "regist": 28927,
  "Ġafterward": 19287,
  "ĠKap": 17792,
  "aming": 3191,
  "ĠKey": 7840,
  "Ġsays": 924,
  "ĠSpani": 30317,
  "ĠLincoln": 10888,
  "Ġpillow": 31274,
  "Ġgreedy": 29017,
  "Ġlocks": 19744,
  "Ġscept": 24741,
  "Ġblack": 2003,
  "Ġmarch": 8896,
  "inas": 21433,
  "ocrats": 14899,
  "ĠIv": 14756,
  "Ġbl": 677,
  "Ġflare": 29819,
  "Ġsovere": 9961,
  "begin": 31405,
  "Ġsor": 22092,
  "Ġspeed": 3062,
  "Ġdos": 21354,
  "800": 8870,
  "Ġbargain": 19399,
  "number": 21395,
  "Ġalleg": 2342,
  "Ġdirty": 11509,
  "closure": 13888,
  "nyder": 16758,
  "Ġentrepreneurial": 31236,
  "Ġaccount": 1837,
  "John": 6963,
  "ĠSafety": 12310,
  "Ġ201": 545,
  "ĠTermin": 17832,
  "Ġ2014": 1903,
  "Ġsoph": 8327,
  "oqu": 19180,
  "Ġbeside": 15405,
  "ĠThom": 19317,
  "Ġsubstant": 5834,
  "ĠPerman": 31726,
  "eling": 10288,
  "Click": 9950,
  "ĠBattery": 28677,
  "glass": 21456,
  "razy": 5766,
  "Ġgeometry": 23479,
  "Ġdegr": 22644,
  "izabeth": 9159,
  "mb": 2092,
  "ĠFury": 22327,
  "ĠBush": 4147,
  "ĠPoll": 11790,
  "Ġtotal": 2493,
  "Ġm": 242,
  "ĠAbout": 8058,
  "Ġownership": 8266,
  "Ġreassuring": 30893,
  "Message": 24131,
  "Jewish": 23937,
  "ĠWo": 25567,
  "Ġconjunction": 18697,
  "Ġhostile": 12158,
  "Ġdisp": 3614,
  "eline": 4327,
  "ĠMartinez": 16798,
  "Ġprogram": 1314,
  "!),": 23453,
  "olving": 9986,
  "Ġblowing": 17561,
  "ĠPOLIT": 24642,
  "Ġnowadays": 23280,
  "Ġcommenting": 22407,
  "Ġanal": 1902,
  "Ġowns": 10329,
  "ĠMust": 13777,
  "id": 267,
  "Ġinexpl": 28174,
  "Ġ48": 6484,
  "Ġdarkness": 13920,
  "Ġcomply": 13085,
  "minist": 1915,
  "ortunately": 4411,
  "Ġspl": 4361,
  "Ġsubtle": 11056,
  "Ġtuned": 14625,
  "ĠLove": 7038,
  "Ġfirearms": 11748,
  "Ġlisted": 6125,
  "Ġdress": 6956,
  "ĠVIP": 25135,
  "issions": 6276,
  "ĠLaz": 31249,
  "force": 2948,
  "Ġcellphone": 20222,
  "Ġdispers": 21588,
  "ĠGiov": 30309,
  "ĠFrench": 3618,
  "56": 7596,
  "ĠWatson": 12126,
  "Ġtrig": 5426,
  "ĠKoreans": 22239,
  "meter": 26597,
  "ĠKle": 13327,
  "Ġpsychic": 28111,
  "ĠNW": 22171,
  "ĠAust": 2085,
  "mor": 14832,
  "Ġautomobile": 24807,
  "Ġsigns": 5471,
  "abouts": 25510,
  "Ġpinch": 25232,
  "ĠReports": 19708,
  "Ġstigma": 22413,
  "è": 163,
  "Ġagreeing": 20411,
  "network": 31947,
  "broken": 23565,
  "cond": 18082,
  "Ġalign": 11640,
  "ĠCatholic": 6524,
  "ĠFans": 21391,
  "Ġsearch": 3027,
  "Ġprinciple": 7781,
  "amp": 631,
  "ste": 4141,
  "ram": 4003,
  "Ġmassage": 30312,
  "Ġrepe": 2903,
  "Ġpointer": 20820,
  "Ġinflu": 2740,
  "Ġquasi": 27660,
  "Ġfooled": 31747,
  "Ġbreeze": 30617,
  "apers": 5203,
  "ĠGig": 25028,
  "essment": 24244,
  "Ġgorge": 17247,
  "Ġoppose": 10387,
  "ĠDud": 30090,
  "Ġhood": 14281,
  "Ġcivil": 2618,
  "Ġdefending": 9812,
  "Ġcitizen": 8302,
  "Ġcomparatively": 28988,
  "Ġconsistency": 14702,
  "Ġdont": 26582,
  "Ġhandset": 28814,
  "Ġcriminals": 10763,
  "ĠAlready": 25802,
  "ĠRelease": 18408,
  "erem": 29523,
  "ĠRepresentatives": 14624,
  "ĠFleet": 22461,
  "Ġdonor": 15827,
  "Nearly": 22067,
  "spe": 4591,
  "onom": 5443,
  "pler": 21639,
  "Ġrallying": 27480,
  "ĠCand": 16528,
  "ĠTraff": 16903,
  "owitz": 17461,
  "Ġargue": 5966,
  "EST": 8553,
  "ĠOpening": 26680,
  "ĠSolo": 23963,
  "ĠJS": 25768,
  "ĠVM": 17655,
  "ĠCalder": 27337,
  "rations": 6720,
  "ĠNBA": 6179,
  "jriwal": 30446,
  "Ġdifficulty": 9509,
  "Ġrecipient": 18416,
  "Ġmeg": 14501,
  "door": 8974,
  "Ġairborne": 30971,
  "ansk": 31158,
  "Ġdrafting": 21943,
  "Ġmug": 28003,
  "ĠLatin": 8210,
  "ÙĲ": 29157,
  "phasis": 28280,
  "aware": 8920,
  "Making": 21293,
  "activ": 18356,
  "Ġpay": 1318,
  "ift": 2316,
  "ĠAAA": 24129,
  "×ķ": 31615,
  "ĠExp": 11189,
  "Ġstrengthening": 21127,
  "Ġvolatile": 20063,
  "Ġcrews": 15549,
  "ĠMalik": 28050,
  "isman": 22772,
  "rike": 11076,
  "erman": 1916,
  "riminal": 25557,
  "Ġrecipients": 18004,
  "Ġalley": 22712,
  "ĠATM": 28583,
  "ava": 4724,
  "Ġcompetence": 29629,
  "ĠSleep": 22730,
  "Rod": 24484,
  "byn": 12277,
  "Ġmanufactured": 16017,
  "Ġshareholder": 26295,
  "Ġtriggers": 21064,
  "ĠFranco": 23629,
  "ĠDemocrat": 1830,
  "ĠWhats": 17278,
  "Ġengaged": 7457,
  "planned": 31185,
  "Ġlithium": 25154,
  "Ġtray": 30091,
  "ĠDevils": 20945,
  "St": 1552,
  "Ġcomprom": 7060,
  "icon": 4778,
  "Ġbroadly": 15564,
  "blind": 29884,
  "Ġvoluntary": 15484,
  "ĠOrganisation": 25046,
  "Ġsuppress": 17510,
  "Ġpaired": 18800,
  "Ġfals": 24686,
  "Ġdried": 17879,
  "racted": 19119,
  "Ġghosts": 27033,
  "Ġupset": 8023,
  ",": 12,
  "irsty": 25702,
  "Ġproviding": 4757,
  "Ġeman": 20949,
  "Ġhesitant": 28327,
  "Ġportions": 17246,
  "Ġdecentralized": 21241,
  "Ġsire": 29086,
  "ĠLovecraft": 31723,
  "Ġ104": 20931,
  "ĠPerhaps": 8026,
  "Ġshelling": 31262,
  "Ġforget": 5829,
  "MA": 5944,
  "Ġnicht": 29534,
  "Ġ2030": 20114,
  "ĠBaptist": 19124,
  "cil": 2487,
  "Ġ3000": 24495,
  "Ġperformer": 22898,
  "Ġphysical": 3646,
  "Ġreal": 997,
  "DM": 23845,
  "ost": 420,
  "Ġtails": 29950,
  "ĠSoc": 3295,
  "itions": 1795,
  "Ġredund": 20684,
  "Ġfiguring": 18961,
  "ĠHoldings": 29236,
  "upiter": 18458,
  "Ġago": 1844,
  "Ġperiodic": 29464,
  "ĠEmail": 9967,
  "ĠHung": 10882,
  "Ġquantities": 17769,
  "celer": 6960,
  "ĠGuantanamo": 24135,
  "ĠLeah": 26620,
  "first": 11268,
  "Ġwing": 7751,
  "ĠChess": 31635,
  "Ġpopulist": 18941,
  "ativity": 19439,
  "folk": 20377,
  "ĠJam": 9074,
  "opoulos": 17453,
  "Ġrecession": 11461,
  "Ġbehavior": 4027,
  "Ġ2004": 5227,
  "Ġcheer": 13142,
  "daily": 26599,
  "Ġoverd": 12439,
  "ĠBarbara": 14917,
  "Ġcategor": 20511,
  "ĠOptions": 28206,
  ".''": 18480,
  "Ġacc": 652,
  "ĠPaul": 2847,
  "Ġtwent": 19609,
  "ĠPepper": 26021,
  "Ġtemp": 27446,
  "ution": 954,
  "Ġunthinkable": 31505,
  "tember": 2688,
  "Ġcontag": 29707,
  "Ġcollected": 7534,
  "ĠElvis": 27929,
  "ĠSpirit": 13270,
  "ĠJar": 14315,
  "ĠGut": 22641,
  "Ġrailway": 17507,
  "Ġpolitician": 11151,
  "Ġwriting": 3322,
  "asons": 2509,
  "Ġevents": 2786,
  "pin": 11649,
  "Ġfacts": 6058,
  "ĠNixon": 13632,
  "breaker": 27486,
  "Ġcomplement": 16033,
  "Ġrecip": 7706,
  "Ġuncomfort": 11167,
  "Download": 14767,
  "rand": 24826,
  "Ġcoach": 3041,
  "un": 361,
  "ĠAlaska": 11157,
  "ĠRow": 12119,
  "Ġsilently": 27012,
  "Ġgriev": 19308,
  "ĠLead": 21362,
  "Ġcreations": 26263,
  "Ġmost": 684,
  "ĠTurnbull": 19646,
  "ault": 2089,
  "ainer": 16278,
  "ters": 844,
  "ĠJourney": 26476,
  "Ġfamously": 15473,
  "ĠGPUs": 30797,
  "Ġdoctor": 6116,
  "define": 30567,
  "ĠÎ": 6902,
  "Sar": 20403,
  "Ġdoor": 3737,
  "Ã«": 26178,
  "ĠGuant": 19244,
  "Ġblade": 17036,
  "Ġearth": 4860,
  "Ġj": 426,
  "Ġmuseums": 25395,
  "ĠAlz": 18468,
  "ĠChavez": 23258,
  "aldi": 31334,
  "ĠCounty": 3073,
  "Ġendangered": 18022,
  "ĠIA": 26916,
  "Ġexport": 10254,
  "Ġmissile": 8556,
  "Ġweren": 5450,
  "recogn": 24047,
  "Ġdownload": 4785,
  "ocur": 12011,
  "ultane": 9122,
  "Ġduplicate": 27946,
  "ĠItaly": 6931,
  "ĠSwedish": 11868,
  "Ġowner": 4904,
  "Central": 28869,
  "ues": 857,
  "Ġconsiderations": 19385,
  "ĠAstron": 23726,
  "Ġblah": 31204,
  "ĠTrin": 31446,
  "Ser": 13024,
  "due": 21661,
  "ĠAlexa": 28847,
  "ĠThus": 7813,
  "Ġprivileged": 18989,
  "Ġmouse": 11279,
  "reams": 7524,
  "ange": 839,
  "ĠAm": 1855,
  "Ġmembr": 21440,
  "Ġmechanics": 12137,
  "Ġ94": 15618,
  "ĠCrit": 11892,
  "Self": 27847,
  "Ġamusement": 29632,
  "arer": 11783,
  "raine": 23054,
  "Ġsheets": 15758,
  "Ġchocolate": 11272,
  "Ġmental": 4960,
  "Ġpopulated": 18819,
  "Coin": 26877,
  "Ġmolecule": 26177,
  "Ġsavage": 28691,
  "Ġunle": 14488,
  "viously": 7694,
  "Ġwilling": 4069,
  "ĠHouth": 24859,
  "erg": 8989,
  "Ġlust": 27546,
  "ĠYear": 6414,
  "uming": 12212,
  "Ġswinging": 24307,
  "ĠSuzuki": 31915,
  "ĠUkraine": 6037,
  "rap": 1344,
  "ĠJamaica": 26248,
  "Ġenem": 3919,
  "ana": 2095,
  "Ġgenerations": 9310,
  "Ġdevote": 23032,
  "Ġheadphones": 22124,
  "ĠSnow": 7914,
  "Ġfeat": 2098,
  "Step": 10489,
  "ert": 1940,
  "Ġqualifications": 25769,
  "Ġfederal": 2156,
  "ĠRou": 10720,
  "Ġbye": 29706,
  "Ġsalmon": 23075,
  "uclear": 3223,
  "Ġtoured": 30904,
  "Ġcracks": 21575,
  "ĠBalk": 24631,
  "ĠPerkins": 24541,
  "ĠPalm": 16805,
  "Ġlovely": 14585,
  "Ġvertically": 31526,
  "Original": 23668,
  "IB": 21792,
  "Ġbarrel": 8832,
  "odic": 26043,
  "ĠSimon": 10163,
  "ĠYan": 9991,
  "ĠCycl": 26404,
  "ĠCas": 11335,
  "Ġtechnological": 11986,
  "acey": 22428,
  "Ġbec": 559,
  "dot": 27192,
  "Ġpins": 23640,
  "ĠBron": 8962,
  "Â·": 12274,
  "ĠDas": 24103,
  "leum": 18791,
  "Be": 3645,
  "ĠWare": 28180,
  "ĠLogan": 19699,
  "Ġmidnight": 14614,
  "nc": 17674,
  "Ġimperson": 25449,
  "ĠJung": 25292,
  "Ġworn": 13782,
  "Ġthesis": 19643,
  "Ġstatistics": 8225,
  "ĠTyr": 29108,
  "ĠRaspberry": 22714,
  "ĠSheffield": 25879,
  "ĠConstitutional": 22387,
  "reddit": 19758,
  "Ġarchives": 20316,
  "rug": 1928,
  "itis": 14062,
  "Ġfunctioning": 14800,
  "urches": 11264,
  "ĠDreams": 26012,
  "ĠDefense": 6714,
  "Ġawkward": 12124,
  "ĠAustralian": 5416,
  "Ġdare": 17299,
  "Ġadvantages": 12646,
  "Ġmeaningful": 9661,
  "Ġspray": 11613,
  "Intern": 15697,
  "Ġrac": 3017,
  "arta": 28517,
  "adows": 13366,
  "inton": 1907,
  "ĠSep": 2309,
  "rikes": 16742,
  "iability": 8620,
  "eah": 4909,
  "h": 72,
  "Ġtesting": 4653,
  "Ġtapping": 22662,
  "Ġmotorcycle": 17589,
  "ĠGujarat": 23310,
  "ĠBP": 14948,
  "Ġtodd": 21246,
  "oving": 5255,
  "ĠColl": 7593,
  "ĠViol": 14594,
  "Ġcolleg": 11176,
  "ĠWolves": 25762,
  "Ġcustomized": 28274,
  "ĠDeath": 8980,
  "Ġsustainability": 21153,
  "ĠDon": 1988,
  "ndering": 19697,
  "ĠPetersburg": 22838,
  "Ġrecovering": 17454,
  "emed": 9281,
  "ĠSister": 30120,
  "uggish": 31209,
  "Ġdoi": 20412,
  ")\"": 25513,
  "Ġconsolidate": 31974,
  "Ġpraised": 11483,
  "uristic": 22811,
  "Ġmayor": 7214,
  "Ġpopulations": 9141,
  "ĠAcc": 8590,
  "Ġeleg": 15143,
  "Ġresources": 3839,
  "def": 6047,
  "Mass": 19007,
  "Ġmidterm": 31079,
  "ĠAven": 16043,
  "ilst": 11417,
  "Ġdispatch": 26407,
  "ĠBh": 12869,
  "ĠChad": 16982,
  "Ġsalary": 8431,
  "Ġman": 524,
  "eland": 8432,
  "ibly": 2968,
  "66": 6036,
  "Ġwitch": 17782,
  "Ġbrutal": 10541,
  "Ġenforced": 18191,
  "Ġsit": 1333,
  "ius": 4585,
  "ĠTit": 6850,
  "Ġgeop": 22830,
  "Ġfiled": 5077,
  "¶": 115,
  "ags": 4189,
  "ĠCF": 18570,
  "ĠClinic": 27503,
  "Snow": 27357,
  "[]": 31296,
  "Ġfranch": 6068,
  "Ġconfuse": 26148,
  "ĠFront": 9134,
  "ellation": 26233,
  "Ġvibe": 23884,
  "Ġclients": 7260,
  "ĠFire": 5035,
  "ĠHope": 14687,
  "Ġmoder": 6893,
  "Ġallegations": 5979,
  "essim": 23594,
  "Ġpatriot": 23407,
  "ĠReading": 13873,
  "ãħ": 25506,
  "fully": 2796,
  "Ġexact": 2617,
  "Ġ8": 1075,
  "Ġtopics": 10069,
  "blood": 20079,
  "Ġmitigate": 21627,
  "Ã¡n": 15688,
  "tee": 2246,
  "ĠLegal": 16202,
  "pared": 26602,
  "ĠKane": 17573,
  "ĠTED": 30862,
  "Ġconting": 15988,
  "Ġdungeon": 26556,
  "entry": 18232,
  "hib": 3283,
  "Ġmanned": 28851,
  "sections": 29230,
  "Ġcontinu": 11100,
  "Ġwra": 17123,
  "Ġacts": 6399,
  "cos": 5933,
  "Ġshow": 816,
  "ĠMusic": 8213,
  "ĠCPU": 10982,
  "Ġstarred": 20472,
  "inski": 18247,
  "ĠInternational": 3739,
  "Was": 18645,
  "ĠTomb": 27674,
  "cut": 9025,
  "aber": 30712,
  "ĠDawn": 15203,
  "emies": 30954,
  "Ġemp": 10308,
  "Ġvalid": 5776,
  "Ġink": 17018,
  "loading": 28485,
  "Ġtimely": 19413,
  "part": 3776,
  "ĠSergei": 29405,
  "Ġmanages": 14550,
  "ĠProbably": 18723,
  "Ġrenewed": 13718,
  "Ġunsure": 20956,
  "Ġtimet": 28976,
  "Ġonwards": 29529,
  "midt": 17252,
  "ĠKre": 22962,
  "Ġune": 14033,
  "agg": 8335,
  "asket": 16705,
  "ÃĥÃĤÃĥÃĤÃĥÃĤÃĥÃĤ": 11001,
  "Ġindicating": 12762,
  "Ġyouth": 5465,
  "ĠCAP": 21959,
  "military": 27673,
  "Ġindifference": 30607,
  "à²": 24977,
  "Ġpack": 2592,
  "Ġaccomplished": 12128,
  "Ġprobability": 12412,
  "ĠPython": 11459,
  "Ġsixteen": 28250,
  "Ġbackward": 18853,
  "ĠHart": 10050,
  "ĠPublishing": 23824,
  "Ġsuburbs": 16529,
  "idence": 1638,
  "Ġjob": 1400,
  "edia": 5530,
  "plane": 15015,
  "ĠKiss": 20980,
  "Ġapplauded": 29583,
  "Alan": 31940,
  "bast": 18210,
  "ishes": 5858,
  "Ġlegislatures": 30944,
  "Ġbooth": 16144,
  "Cry": 31330,
  "Ġ]": 1725,
  "axies": 20491,
  "ĠAt": 1594,
  "think": 12536,
  "ĠWoods": 16782,
  "Ġminister": 4000,
  "Ġimmedi": 2682,
  "ousand": 31791,
  "Ġonto": 4289,
  "ĠOPS": 31705,
  "Ġes": 1533,
  "ATH": 18212,
  "Ġresur": 15856,
  "rol": 4002,
  "Ġwounds": 14483,
  "rien": 13629,
  "Ġdiamond": 19612,
  "Ġupwards": 20867,
  "ĠMafia": 31513,
  "ju": 16003,
  "another": 27398,
  "ĠHe": 647,
  "icians": 4253,
  "ê": 165,
  "ĠIl": 14012,
  "ĠZucker": 20973,
  "ĠWald": 22237,
  "Ġenthusiast": 29005,
  "Ġmakers": 12075,
  "lyn": 5485,
  "ĠFinance": 13716,
  "Spot": 29181,
  "ĠBoss": 21023,
  "Ġnegotiations": 7537,
  "ĠWhile": 2717,
  "Ġenlisted": 25589,
  "Ġreset": 13879,
  "ĠLondon": 3188,
  "ĠPil": 15440,
  "never": 12692,
  "ĠMuslim": 3136,
  "Ġsteel": 8651,
  "oustic": 21439,
  "weight": 6592,
  "Ġsaved": 7851,
  "Ġwrongly": 26436,
  "Ġmoral": 6026,
  "ĠIR": 17026,
  "Ġexpresses": 26832,
  "ĠCool": 17052,
  "AND": 9059,
  "pret": 6354,
  "uchi": 27244,
  "ĠStrange": 18689,
  "ĠAlonso": 26861,
  "Ġswallow": 26550,
  "ĠMake": 8439,
  "dragon": 27677,
  "ats": 1620,
  "const": 9748,
  "ĠHorizon": 24106,
  "Ġimplant": 29590,
  "Ġfingerprints": 30349,
  "ĠPvP": 30328,
  "ĠSah": 20483,
  "ĠCemetery": 29892,
  "Ġprover": 29371,
  "ĠAmong": 9356,
  "ĠUsing": 10019,
  "Spe": 6073,
  "ĠAnalysis": 17727,
  "Ġounce": 23678,
  "Ġsolve": 7512,
  "Ġinfo": 9627,
  "ĠBurns": 19803,
  "Ġmasculine": 26555,
  "Ġlex": 30338,
  "Ġdough": 17255,
  "Ġmaking": 1487,
  "ablo": 16841,
  "\"": 2,
  "Ġfacto": 20302,
  "ĠBard": 29113,
  "imp": 7220,
  "ĠStrong": 16753,
  "ĠWales": 9815,
  "DA": 4807,
  "intern": 25949,
  "ĠLeaders": 18667,
  "ĠArabic": 15145,
  "oser": 20604,
  "Ġcrafts": 28094,
  "oom": 4299,
  "Ġranking": 11018,
  "woman": 6776,
  "Ġsights": 20574,
  "Ġlac": 28437,
  "Ġhistories": 23487,
  "Ġquot": 17876,
  "enment": 21725,
  "Ġalias": 26530,
  "Ġlucrative": 17652,
  "ĠAzerbaijan": 27830,
  "ĠProtect": 28460,
  "Ġassessing": 22904,
  "Ġformation": 9597,
  "Ġ+": 2581,
  "ĠWalking": 20415,
  "Ġlawn": 19186,
  "Ġpolicy": 2000,
  "RE": 2071,
  "ĠPix": 25652,
  "ĠCase": 10457,
  "British": 20331,
  "Ġspear": 18005,
  "Ġbiased": 17962,
  "down": 2880,
  "Ġsummer": 3250,
  "Ġdurable": 24065,
  "Ġcongrat": 17412,
  "Ġdisorder": 9373,
  "Ġbliss": 30557,
  "ĠOC": 24917,
  "amsung": 8020,
  "ĠService": 5101,
  "Ġwicked": 25461,
  "emen": 7407,
  "aru": 15320,
  "Ġembracing": 20849,
  "aged": 1775,
  "shaw": 27140,
  "Ġethic": 23677,
  "utory": 22902,
  "Ġfloat": 16263,
  "quar": 26648,
  "ĠGoodman": 25920,
  "Ġremains": 3290,
  "Ġredu": 2022,
  "ĠPrison": 17859,
  "Ġnoted": 3764,
  "Ġguns": 5893,
  "ĠOFF": 27040,
  "ik": 1179,
  "bons": 21939,
  "ophers": 19891,
  "Ġcovert": 19372,
  "Ġadults": 6337,
  "ĠWhich": 8799,
  "axis": 26817,
  "ĠSaudi": 6071,
  "ĠSem": 16160,
  "Ġwitnessed": 11860,
  "IND": 21600,
  "Ġforwarded": 29930,
  "James": 13454,
  "ĠExcept": 21151,
  "ascular": 18047,
  "Ġsolutions": 7186,
  "organ": 9030,
  "uture": 1590,
  "Ġtagged": 27623,
  "ication": 4894,
  "orton": 17546,
  "hetics": 23107,
  "Ġfaint": 21593,
  "Ġimplies": 15410,
  "Ġdesires": 16715,
  "oss": 758,
  ".<|": 919,
  "Ġ1000": 11301,
  "Ġoversees": 24427,
  "ĠNak": 19924,
  "ĠUlt": 8292,
  "ĠGates": 13766,
  "ospace": 21931,
  "Ġdramatic": 8520,
  "Ġhunters": 20841,
  "Ġdiff": 776,
  "amps": 13478,
  "Finding": 31902,
  "WAR": 25742,
  "ĠRalph": 18330,
  "Video": 12873,
  "Ġaver": 7968,
  "Ġprototypes": 25886,
  "Ġconscience": 16852,
  "<|": 659,
  "ĠWa": 17335,
  "ĠHC": 30521,
  "Ġcope": 16646,
  "Ġprizes": 20493,
  "Ġupright": 26873,
  "minute": 9321,
  "Ġsupplies": 9040,
  "Ġirres": 24813,
  "ĠACT": 24445,
  "road": 5285,
  "stem": 907,
  "Ġsiege": 17580,
  "care": 5738,
  "Ġrouter": 24352,
  "ĠWend": 19087,
  "Ġ{{": 31063,
  "ĠDra": 15371,
  "Ġpetitions": 27169,
  "Ġtutorial": 12539,
  "Ġcasualties": 14843,
  "Ġprogression": 16872,
  "ĠAlmost": 15731,
  "ln": 21535,
  "Ġbank": 2797,
  "ographs": 31478,
  "ĠFAQ": 27083,
  "ĠPere": 14170,
  "Like": 6669,
  "phal": 28223,
  "Ġcould": 645,
  "Ġfewer": 6423,
  "Ġdetermined": 5474,
  "ĠHarper": 10164,
  "Ġcircumcision": 28169,
  "etz": 18365,
  "Ġbankers": 18701,
  "asa": 15716,
  "ĠLamb": 19179,
  "rifice": 11190,
  "Ġtreatments": 13144,
  "iversary": 8281,
  "orc": 29400,
  "Ġgenerated": 7536,
  "Ġmand": 5840,
  "Å": 128,
  "ĠCape": 14816,
  "ĠQuite": 27567,
  "appointed": 26957,
  "ieth": 18267,
  "asis": 20520,
  "Ġbaseball": 7265,
  "ĠEverton": 19939,
  "Ġemphasized": 16576,
  "Ġtort": 6685,
  "ggy": 18565,
  "Ġoutraged": 21403,
  "Ġproteins": 16106,
  "Ġfoc": 1868,
  "inh": 23982,
  "Os": 13403,
  "aston": 30808,
  "2012": 10662,
  "nell": 5715,
  "ĠAna": 16839,
  "plan": 12918,
  "ĠOz": 16321,
  "Ġpleaded": 13408,
  "Ġeven": 720,
  "Ġsurprises": 20683,
  "Ġverification": 21856,
  "head": 2180,
  "Ġacquaint": 24621,
  "76": 8222,
  "Ġfreshman": 14509,
  "arrow": 27890,
  "Ġstitch": 29674,
  "Ġvoices": 9573,
  "teenth": 22280,
  "ĠSebast": 20054,
  "ĠSer": 3452,
  "shot": 11991,
  "Ġshifts": 13477,
  "ĠCamb": 18271,
  "Ġreflected": 11687,
  "Ġapprove": 12520,
  "Ġwarranted": 29507,
  "Ġordering": 16708,
  "Ġlets": 8845,
  "duct": 2434,
  "',": 6295,
  "Ġanime": 13552,
  "Ġstore": 2735,
  "Ġprogrammers": 19888,
  "ĠShe": 1404,
  "bringing": 29907,
  "Its": 18280,
  "Games": 29082,
  "Ġtrend": 4520,
  "ĠTexans": 16822,
  "ĠApost": 27659,
  "Ġstockp": 25366,
  "Ð¹": 20628,
  "Ġfuturistic": 29296,
  "Ġscaled": 24257,
  "Ġh": 245,
  "Ġclothing": 9675,
  "Ġbrass": 21457,
  "ugging": 13983,
  "Ä±": 15228,
  "Af": 15419,
  "Ġsubsequ": 6002,
  "ĠEthiopia": 25891,
  "Ġneither": 6113,
  "aug": 6999,
  "Ġtook": 1524,
  "ĠIng": 18830,
  "vation": 13185,
  "Ġceiling": 12089,
  "Il": 27069,
  "Ġgad": 19577,
  "rued": 26358,
  "Ġmachinery": 19243,
  "ĠTerry": 12657,
  "aze": 6719,
  "ĠDistrict": 5196,
  "Romney": 30788,
  "Ġconsume": 14421,
  ".ÂĶ": 27465,
  "\",": 2824,
  "ĠAdvertisement": 26589,
  "Ġ77": 12419,
  "iva": 12688,
  "Ġtrolls": 24403,
  "ĠPatch": 26045,
  "pictured": 22792,
  "abwe": 19769,
  "ĠLiberal": 9446,
  "our": 425,
  "Ġassertions": 25192,
  "ati": 6730,
  "Ġparameters": 11749,
  "hower": 26147,
  "iting": 1719,
  "Ġpasswords": 18899,
  "Ġsystem": 1007,
  "ĠClemson": 25803,
  "ĠEach": 6335,
  "Ġspent": 2900,
  "Ġhur": 6442,
  "Mo": 16114,
  "rom": 352,
  "Ñħ": 20431,
  "amo": 15234,
  "Ġsunk": 23856,
  "Ġvirgin": 25713,
  "ow": 282,
  "Ġforcing": 9329,
  "Ġvs": 4257,
  "ĠShap": 25282,
  "Ġrash": 28946,
  "âĶ": 9385,
  "ĠSummary": 31100,
  "average": 21611,
  "Ġsulf": 23494,
  "Ġpants": 13884,
  "ĠPierce": 21783,
  "NN": 4637,
  "AH": 25717,
  "Ġp": 236,
  "ENCE": 24962,
  "Ġspot": 3365,
  "ĠMul": 15284,
  "Ġpand": 20407,
  "Ġpopping": 22780,
  "ĠQB": 14038,
  "Ġpear": 28530,
  "ĠMan": 2015,
  "Ġallies": 6898,
  "Ġmask": 10149,
  "anes": 6575,
  "Ġsake": 11213,
  "Digital": 29415,
  "Ġfuneral": 13281,
  "ĠArk": 9610,
  "Ġfigure": 3470,
  "ĠBird": 15172,
  "Ġhelicopter": 13126,
  "Ġjurors": 25278,
  "Ġgrad": 3669,
  "cur": 18805,
  "ĠBL": 15312,
  "ĠBio": 19351,
  "fiction": 22121,
  "Ġhygiene": 31671,
  "Ġwins": 6529,
  "mers": 9300,
  "iov": 19988,
  "ĠAcross": 27335,
  "rugu": 24969,
  "Ġsouls": 18536,
  "board": 3677,
  "ĠCanucks": 21363,
  "Ġdefinitely": 4496,
  "ĠMinutes": 24661,
  "ĠAfghanistan": 5806,
  "Ġtreaty": 13038,
  "ĠSar": 6548,
  "ĠPCI": 30362,
  "raven": 24619,
  "Ġpoverty": 6922,
  "ĠDis": 3675,
  "Ġshower": 15400,
  "ĠMurd": 16292,
  "Ġcho": 1716,
  "iary": 12601,
  "Ġstages": 8919,
  "Ġmeasured": 8865,
  "`": 64,
  "ĠValent": 17448,
  "sect": 9468,
  "tern": 716,
  "oud": 2809,
  "ĠMiche": 25919,
  "Ġaccommodate": 14160,
  "Ġuseful": 4790,
  "ĠAgain": 6704,
  "106": 22863,
  "ÃŃ": 6059,
  "ĠFOX": 16300,
  "ĠTogether": 16564,
  "Ġpractical": 8157,
  "ĠKlopp": 29739,
  "Ġconcentrated": 15807,
  "ĠMB": 15639,
  "Ġconvinced": 8185,
  "ĠCounter": 17202,
  "Ġpointers": 31905,
  "ĠPhoto": 5456,
  "Ġamount": 2225,
  "ĠDemp": 30718,
  "Ġillusion": 17212,
  "Ġboil": 23163,
  "ĠAgainst": 12390,
  "adesh": 10884,
  "Ġconsultants": 24249,
  "Sah": 30500,
  "Ġincome": 3702,
  "Ġrecruited": 16481,
  "requency": 29987,
  "Ġmanifest": 9735,
  "Ġinstitutions": 5763,
  "Ġrate": 2535,
  "lot": 26315,
  "bridge": 8996,
  "ynam": 5023,
  "ĠWho": 5475,
  "ĠCafe": 26280,
  "ilater": 30232,
  "ussions": 18870,
  "Ġwiped": 19749,
  "reck": 10737,
  "ĠChristine": 23001,
  "Ġrarely": 7674,
  "Ġconversion": 12275,
  "Ġattacks": 3198,
  "rain": 2719,
  "ĠThank": 7128,
  "Ġpassing": 5633,
  "Ġmasked": 26091,
  "isted": 5221,
  "Ġimagined": 14179,
  "ĠGilbert": 20393,
  "Ġdownt": 6439,
  "Ġadoption": 11669,
  "ĠFormer": 13464,
  "Ġadversaries": 29036,
  "ificant": 16369,
  "Ġawaken": 20633,
  "âĢĻ": 286,
  "Ġfortune": 15382,
  "Ã£": 13394,
  "lord": 24712,
  "ĠAngels": 20008,
  "ps": 3002,
  "step": 9412,
  "ĠAngeles": 4761,
  "Credit": 21307,
  "Ġabd": 25957,
  "Ġporch": 30289,
  "(\"": 10413,
  "default": 23786,
  "Ġcard": 3091,
  "naire": 26958,
  "Ġcor": 1120,
  "Edit": 27871,
  "ĠTide": 29903,
  "ĠEden": 25530,
  "ĠRhod": 19833,
  "Ġ_": 8752,
  "Ġbillion": 2362,
  "Ġtragedy": 11267,
  "Ġdetermine": 5297,
  "Car": 10853,
  "Ġfrog": 21346,
  "Ġthermal": 18347,
  "\\-": 20225,
  "tenance": 9444,
  "ĠDefensive": 28508,
  "Ġstems": 19873,
  "Ġmotives": 19853,
  "DT": 26936,
  "Ġcooling": 15101,
  "Ġadvising": 25529,
  "Ġmur": 4236,
  "Ġcode": 2486,
  "me": 1310,
  "Ġtrucks": 12204,
  "Ste": 5454,
  "Ġattorney": 5268,
  "Kn": 27612,
  "ethyl": 28475,
  "emaker": 30900,
  "Ġrh": 18890,
  "Ġpatrol": 11934,
  "Ġsound": 2181,
  "Ġamino": 28601,
  "item": 20793,
  "ĠKar": 9254,
  "Context": 28774,
  "games": 26643,
  "Ġpil": 5236,
  "ib": 541,
  "ĠPalest": 4233,
  "ria": 7372,
  "Ġknocked": 12664,
  "Ġpocket": 9878,
  "MORE": 19355,
  "Ġdealer": 18491,
  "Ġyog": 27885,
  "Ġwashed": 19236,
  "ĠBanks": 17088,
  "Ġâĸ": 15258,
  "Ġswear": 22601,
  "Ġcrush": 19381,
  "arre": 10002,
  "ĠDavid": 2829,
  "Ġvolcano": 27856,
  "Ġcontracted": 20531,
  "\":{\"": 30856,
  "Ġwanting": 9569,
  "Ġabuse": 4740,
  "Ġrefrain": 22515,
  "Ġframe": 4383,
  "Ġmind": 1989,
  "riger": 18903,
  "ĠAnd": 757,
  "Ġclosed": 4562,
  "ĠLiving": 14060,
  "Ġnasty": 15802,
  "Po": 19968,
  "Ġlect": 10134,
  "Ġstunned": 19272,
  "ĠPant": 10809,
  "ĠNora": 27452,
  "Ġpromise": 6380,
  "$": 4,
  "Ġaviation": 19482,
  "Ġeventual": 15671,
  "Ġstatements": 5936,
  "ĠMaster": 8923,
  "ami": 7893,
  "Par": 12599,
  "ĠMovie": 17106,
  "Ġpartnership": 8899,
  "Ġbenefited": 19879,
  "Ġevaluating": 21299,
  "Ġrents": 23505,
  "Ġappointment": 12037,
  "ĠExamples": 28104,
  ".âĢĿ[": 26102,
  "Ġdisappointed": 10275,
  "32": 4345,
  "Ġtrusts": 28836,
  "oooo": 25884,
  "etus": 25963,
  "Ġagainst": 891,
  "ĠLos": 4582,
  "ĠFeel": 22234,
  "Ġdisclose": 14306,
  "Ġfavour": 6375,
  "oko": 15833,
  "Ġhouseholds": 11019,
  "Ġstaple": 22088,
  "Ġcla": 27203,
  "Ġfries": 30107,
  "ĠBroncos": 13923,
  "Ġcarve": 31207,
  "Ġcond": 1809,
  "ĠPodcast": 24200,
  "Ġconvers": 3274,
  "oux": 18980,
  "ĠWin": 7420,
  "writing": 14218,
  "Ġdetached": 29622,
  "ĠECB": 25999,
  "Which": 12626,
  "Ġtucked": 27208,
  "Everybody": 22215,
  "ih": 4398,
  "Ġstaging": 25015,
  "Ġmeeting": 2798,
  "Ġeliminating": 16124,
  "Oper": 19542,
  "Ġsimplify": 27289,
  "ĠFa": 19694,
  "ission": 1456,
  "Ġawake": 22699,
  "ĠBashar": 18385,
  "ĠFreeman": 19709,
  "Ġmeanings": 28241,
  "Ġcontraception": 23949,
  "Ġnonprofit": 12486,
  "Ġmicro": 4479,
  "Ġphilosophical": 15709,
  "Ġbitter": 12248,
  "Business": 22733,
  "Ġtsunami": 23144,
  "Ġmonumental": 29211,
  "onymous": 6777,
  "ys": 902,
  "Ġbother": 11313,
  "mith": 24118,
  "Ġtribunal": 25697,
  "Ġinstructed": 16961,
  "Ġshortages": 22448,
  "letcher": 25174,
  "supp": 12387,
  "Ġnorm": 2801,
  "ĠCert": 22467,
  "\">": 9188,
  "Ġtoes": 24907,
  "Ġsever": 1583,
  "tics": 12956,
  "Hell": 29737,
  "Ġ1948": 18712,
  "Ġpsychologists": 27004,
  "Ġencoding": 25446,
  "Ġparalle": 8786,
  "Ġore": 24779,
  "Ġcuts": 5106,
  "uddenly": 19702,
  "Ġaxe": 27849,
  "ĠZen": 16649,
  "ĠArbor": 31288,
  "ĠInsider": 18850,
  "Ġmor": 1944,
  "ĠBall": 8494,
  "ĠBain": 26578,
  "Ġrank": 4070,
  "ulsion": 14497,
  "ĠSpurs": 14637,
  "ashington": 2059,
  "Ġwithout": 1231,
  "itz": 4796,
  "ug": 1207,
  "Ġsupervisors": 31299,
  "ĠMormons": 29247,
  "IFF": 30568,
  "Ġmethod": 2789,
  "ĠUt": 7196,
  "anol": 21076,
  "Ġdisciplines": 27385,
  "aily": 2837,
  "Ġvolunteer": 12555,
  "elling": 15673,
  "Along": 19369,
  ".....": 26829,
  "ĠUAE": 23242,
  "Ġwithdrew": 20693,
  "intendo": 8464,
  "Ġconservation": 12410,
  "ĠLemon": 30076,
  "Ġcertific": 10764,
  "Ġstudies": 3848,
  "Mill": 29992,
  "Ġoffset": 12933,
  "ĠZimmer": 16191,
  "Ġpumped": 24286,
  "Ġspont": 17425,
  "ĠBrigade": 23470,
  "ĠFebruary": 3273,
  "Not": 3980,
  "Ġtried": 2936,
  "Franc": 31609,
  "Ġfu": 30652,
  "omic": 10919,
  "ĠRAM": 14880,
  "utions": 3227,
  "ĠThreat": 24644,
  "Ġal": 381,
  "irty": 6128,
  "COMMENT": 30746,
  "ĠArg": 24605,
  "pron": 31199,
  "Ġmatches": 6867,
  "modern": 20290,
  "Ġodd": 5286,
  "ĠJuda": 21336,
  "Try": 27167,
  "Ġprofessionals": 10422,
  "Activity": 25171,
  "Â£": 13581,
  "Ġar": 558,
  "iller": 4491,
  "ALL": 9792,
  "Ġinserted": 20708,
  "dict": 10961,
  "Ġalbums": 13430,
  "ÃĥÃĤ": 7004,
  "ĠShooting": 31931,
  "Ġreceptor": 20475,
  "Ġroadmap": 31218,
  "Ġplease": 4622,
  "neapolis": 15820,
  "Ġneon": 25402,
  "heart": 17328,
  "Ġtextbooks": 27697,
  "ĠIraqis": 27481,
  "Ġalcohol": 6167,
  "ĠLeft": 9429,
  "ĠOr": 1606,
  "Ġsee": 727,
  "ĠCalif": 2741,
  "thy": 21495,
  "unal": 18445,
  "Ġholog": 30781,
  "Ġundis": 20123,
  "Ġhighway": 12515,
  "thought": 25021,
  "ĠRes": 2263,
  "ĠQuinn": 15176,
  "Six": 19090,
  "ĠStudents": 16139,
  "Ġ350": 15184,
  "ĠPad": 14685,
  "Ġcombined": 5613,
  "Ġwinding": 27594,
  "ĠBuddha": 21218,
  "Ġforecast": 9295,
  "Ġbenchmarks": 29975,
  "Ġheavy": 4273,
  "ĠPhysical": 24923,
  "iverse": 3978,
  "ĠFM": 21037,
  "igs": 16460,
  "Ġscholar": 16909,
  "Ġaffect": 2771,
  "Ġappearance": 5458,
  "Ġrapper": 20777,
  "PDATE": 12354,
  "ronting": 24290,
  "Ġinexpensive": 23197,
  "Ġresurg": 24905,
  "Ġwidening": 31067,
  "Ġdeserving": 29392,
  "aith": 3921,
  "Ġimpact": 2588,
  "ĠISO": 22113,
  "ĠGary": 9842,
  "ĠDOM": 24953,
  "Ġ150": 7563,
  "inders": 29049,
  "Ġcoerc": 21874,
  "aned": 19887,
  "Ġconnectivity": 17256,
  "Ġrankings": 14167,
  "Ġbanana": 24514,
  "ĠVital": 30495,
  "Ġspecimen": 30622,
  "ĠStrip": 17198,
  "Ġthem": 561,
  "Ġrenewables": 25143,
  "Ġanalytical": 28377,
  "Windows": 20467,
  "Ġmedicines": 22365,
  "ĠRadeon": 28022,
  "White": 11837,
  "Ġstability": 9372,
  "Ġtake": 939,
  "tingly": 28194,
  "ĠSox": 13544,
  "ular": 1054,
  "Ġnortheast": 20203,
  "cest": 9665,
  "Dep": 14362,
  "ĠMiami": 7030,
  "dog": 8925,
  "ĠCameron": 8339,
  "Ġoccurring": 14342,
  "opic": 16354,
  "ood": 687,
  "Ġbrib": 18827,
  "ĠFinal": 10156,
  "Ġtactic": 15724,
  "Ġvery": 808,
  "Ġrule": 3801,
  "Word": 30854,
  "pace": 12941,
  "bull": 13557,
  "ken": 3699,
  "42": 5735,
  "Ġlowest": 8642,
  "Ùħ": 20027,
  "agnetic": 24399,
  "Ġweighing": 19367,
  "Thread": 28340,
  "Ġpens": 28044,
  "Ġdoc": 2116,
  "ĠAdrian": 18502,
  "Ġfloating": 12704,
  "ĠHait": 15497,
  "iqu": 1592,
  "Ġprocessing": 8006,
  "Ġmassacre": 15529,
  "Ġwages": 8361,
  "Ġroyalty": 27374,
  "ĠLeon": 9737,
  "Ġstereo": 27861,
  "ĠKr": 11161,
  "ĠBeck": 9294,
  "Ġenerg": 18292,
  "Ġfant": 4783,
  "ethe": 9513,
  "Ġsuperst": 21150,
  "Ġprints": 21812,
  "uffle": 18001,
  "ĠColbert": 22972,
  "bert": 4323,
  "Ġsurgeon": 21609,
  "wed": 10340,
  "IDE": 18273,
  "ĠTou": 25340,
  "ĠImperial": 15118,
  "Ġtraders": 18495,
  "Ġmitochond": 25908,
  "where": 2356,
  "ĠPodesta": 22955,
  "Ġartistic": 15260,
  "Ġorphan": 25218,
  "Ġanalysis": 3627,
  "ĠLittle": 8314,
  "Ġfantastic": 8707,
  "ĠBloom": 9467,
  "Ġengulf": 28084,
  "Ġwrestling": 13376,
  "Ġimplied": 18709,
  "ĠMeet": 20922,
  "Ġpact": 22552,
  "Ham": 21344,
  "ĠVoting": 27314,
  "Ġacqu": 3990,
  "ici": 4636,
  "ze": 2935,
  "Ġconstructor": 28337,
  "Ġpractice": 3231,
  "ĠCord": 21001,
  "Ġensure": 4036,
  "Ġflown": 18466,
  "puted": 14448,
  "ĠSP": 7799,
  "Ġbart": 29479,
  "edd": 5742,
  "ĠPortal": 31449,
  "ĠMalaysian": 26170,
  "series": 24557,
  "Ġcaus": 26922,
  "ĠAston": 25630,
  "Ġblunt": 17268,
  "Ġpersona": 23287,
  "Ġpartisan": 14814,
  "ĠSouthwest": 21039,
  "ĠTem": 7224,
  "Ġ124": 28580,
  "Ġscripts": 15888,
  "Ġsole": 6947,
  "orus": 14991,
  "Ġdefendants": 14890,
  "Ġoutspoken": 21005,
  "ĠSun": 4045,
  "ĠStadium": 8665,
  "Ġapplied": 6124,
  "ĠMask": 30227,
  "ye": 7544,
  "ĠOur": 4275,
  "sor": 22036,
  "amus": 26213,
  "icals": 24855,
  "Ġdreaming": 26654,
  "IGH": 25439,
  "Around": 19804,
  "mson": 23476,
  "Ġshook": 17225,
  "ordinates": 31116,
  "Ġcommissioners": 27501,
  "jri": 29683,
  "venge": 30722,
  "Ġembod": 19204,
  "akin": 27104,
  "nered": 12876,
  "Ġcommentary": 11889,
  "Ġoverseeing": 23827,
  "ĠEston": 21814,
  "ĠRade": 25798,
  "ANS": 19312,
  "74": 8609,
  "Ġscreenshot": 20565,
  "Ġ09": 16965,
  "ista": 11221,
  "ston": 3461,
  "ľ": 207,
  "Ġ1924": 30994,
  "ĠNam": 18838,
  "oration": 6881,
  "ider": 1464,
  "ĠVery": 12797,
  "Ġevasion": 29722,
  "ispensable": 31794,
  "Ġmeddling": 27318,
  "interested": 30133,
  "ĠArchive": 23727,
  "Cl": 4322,
  "Ġalthough": 3380,
  "igger": 21901,
  "Tr": 3047,
  "Frame": 28070,
  "Ġ1500": 23590,
  "Ġwa": 2121,
  "cted": 18949,
  "Ġplight": 23201,
  "((": 30523,
  "Ġanx": 7092,
  "Ġuphold": 17277,
  "ĠObamaCare": 27419,
  "Ġbringing": 5340,
  "custom": 29755,
  "arium": 20397,
  "avoid": 25634,
  "Ġ],": 30370,
  "ensitive": 28387,
  "Ã©s": 13229,
  "Ġconcluded": 7237,
  "spl": 26500,
  "%).": 20180,
  "Ġpurse": 25389,
  "reg": 2255,
  "Hol": 25770,
  "rights": 21313,
  "rict": 1899,
  "Ġstake": 8529,
  "ĠJas": 23182,
  "ĠTok": 9804,
  "ults": 12147,
  "igg": 6915,
  "ĠPerth": 24132,
  "Ġneur": 11298,
  "GE": 8532,
  "appy": 8166,
  "Ġmetabolism": 24505,
  "Ġunion": 5099,
  "Ġsynthetic": 18008,
  "ĠCanadians": 11094,
  "ĠCatal": 16199,
  "acy": 1441,
  "Ġdisreg": 17218,
  "ĠTechn": 5932,
  "bery": 11433,
  "ĠMW": 26325,
  "ĠPresident": 1634,
  "Ġseized": 10218,
  "Ġinv": 723,
  "Ġfacilitate": 14639,
  "Ġborrowed": 20102,
  "ĠAfghan": 4706,
  "Ġsourced": 28191,
  "Ġbecom": 2671,
  "J": 42,
  "Ġestate": 7323,
  "hammad": 13337,
  "ĠGrab": 28615,
  "way": 965,
  "ĠVietnam": 9417,
  "mates": 5952,
  "Alex": 13467,
  "ĠActually": 18230,
  "Ġappropriately": 19552,
  "Ġcongregation": 25379,
  "ĠRush": 14613,
  "Ġcouncils": 21569,
  "Reuters": 9483,
  "ared": 1084,
  "Ġfading": 29355,
  "channel": 29233,
  "ĠCompanies": 22043,
  "Ġvisible": 7736,
  "Ġwhopping": 22616,
  "otherapy": 18841,
  "ĠÐ¸": 19546,
  "Ġru": 7389,
  "ĠDiscovery": 20880,
  "UL": 7702,
  "Tunes": 13985,
  "Coun": 24963,
  "Ġsold": 2477,
  "his": 13877,
  "atisf": 16187,
  "Ġfrontal": 29521,
  "!âĢĿ": 4590,
  "Ġsouthern": 7029,
  "Ġreservoir": 27748,
  "ĠJav": 15018,
  "Ġass": 835,
  "luence": 23993,
  "ĠVisa": 30517,
  "Ġform": 1324,
  "ris": 1999,
  "test": 7724,
  "Mod": 9927,
  "Ġprom": 1360,
  "ciation": 18956,
  "Ġsponsor": 15084,
  "ĠEverett": 31310,
  "Ġplotting": 25737,
  "Ġdivorced": 21421,
  "ĠMotors": 15853,
  "Ġgaze": 20983,
  "2008": 14462,
  "Ġeditor": 5906,
  "ĠRos": 9036,
  "Ġtransferring": 24483,
  "Ġimplements": 27979,
  "tesque": 31641,
  "irt": 2398,
  "Ġplaying": 2334,
  "Ġreach": 2956,
  "MC": 15488,
  "ad": 281,
  "Ġimmoral": 27197,
  "Ġlo": 2464,
  "Ġverbal": 17228,
  "ĠPri": 4586,
  "Ut": 22497,
  "se": 283,
  "Ġcartoons": 23779,
  "ĠUruguay": 30674,
  "ĠCinem": 19291,
  "Ġimpulse": 25051,
  "ĠCatch": 30778,
  "from": 7505,
  "ĠFrozen": 28478,
  "Ġpale": 14827,
  "Ġbe": 265,
  "Ð¶": 26925,
  "Ġtoddler": 27432,
  "Ġconsuming": 17815,
  "Ġshootings": 13961,
  "Ġdetrimental": 26622,
  "Ġsubscribe": 10561,
  "oul": 3417,
  "Ġediting": 12822,
  "Ġstip": 20299,
  "ĠBan": 10499,
  "Ġmeant": 3644,
  "ĠWright": 10558,
  "ĠLords": 23703,
  "Ġinteractive": 13759,
  "Ġintegration": 10459,
  "yson": 16928,
  "Ġsurf": 8679,
  "Ġorganism": 25430,
  "ĠPolice": 3794,
  ".(": 19086,
  "ced": 730,
  "orious": 9409,
  "Ġrandom": 5342,
  "87": 7960,
  "Ġshoulders": 13704,
  "western": 12382,
  "pi": 19855,
  "Ġincompetent": 28956,
  "Ġmakeshift": 27842,
  "job": 28712,
  "Ġenlarge": 25370,
  "cca": 14164,
  "ĠOx": 9994,
  "ountain": 19902,
  "ĠMayor": 8130,
  "ĠHog": 29690,
  "Ġsubpo": 20226,
  "reens": 5502,
  "Ġins": 985,
  "°": 109,
  "Ġ1914": 24063,
  "mercial": 16699,
  "Ġsubsidies": 12480,
  "Ġsequencing": 28625,
  "Ġcamp": 1160,
  "Ġfetal": 27925,
  "Ġguests": 10339,
  "pose": 18104,
  "ieves": 18907,
  "Ġain": 18405,
  "Reb": 30204,
  "released": 27096,
  "Ġowing": 26196,
  "ĠHeights": 19227,
  "cohol": 5550,
  "ĠDown": 6625,
  "Ġoperating": 5102,
  "ele": 9383,
  "Ġsalv": 23289,
  "itol": 9563,
  "ukes": 28238,
  "Ġarguably": 12088,
  "Ġquestionnaire": 30846,
  "Working": 26086,
  "Ġapprehend": 28402,
  "forest": 30000,
  "ettes": 22789,
  "Ġgreatest": 5457,
  "roid": 3956,
  "Ġexpensive": 5182,
  "Ġbells": 27517,
  "Ġtemperature": 6272,
  "asks": 6835,
  "Ġpseud": 14365,
  "Ġlandlords": 26008,
  "Ġbuy": 2739,
  "ighth": 10268,
  "ĠPlat": 31210,
  "Ġ165": 29025,
  "Ġpercent": 1210,
  "Ġphotographer": 14004,
  "light": 2310,
  "cards": 31370,
  "Ġpur": 2597,
  "aded": 5135,
  "Ġwarmth": 24548,
  "oved": 2758,
  "ĠHold": 9726,
  "Ġchallenger": 23858,
  "Ġplaced": 4711,
  "ĠIncome": 22627,
  "Ġbreed": 16662,
  "Ġmice": 9873,
  "Ġlongstanding": 23661,
  "Ġdisguised": 30134,
  "Ġbitch": 24602,
  "gic": 24313,
  "Ġstomp": 30422,
  "ĠMalaysia": 14583,
  "eping": 7133,
  "Ġbattlefield": 14697,
  "Far": 18186,
  "Ġgives": 3694,
  "ĠLester": 30469,
  "uador": 20252,
  "Ġunre": 11103,
  "ĠGrim": 30429,
  "ned": 1154,
  "ĠCad": 20010,
  "ĠJane": 11145,
  "Ġcanvas": 21723,
  "Ġstatistically": 19911,
  "ĠTillerson": 20404,
  "iley": 8948,
  "ĠMeh": 27630,
  "shirts": 19782,
  "Ġwelcoming": 19059,
  "ĠGreen": 3520,
  "ĠBillboard": 23308,
  "July": 16304,
  "ĠWrite": 23458,
  "croft": 31387,
  "Ġcontact": 3013,
  "Ġboat": 8539,
  "ĠPayPal": 23844,
  "Ġunp": 7255,
  "ature": 1320,
  "Ġachieved": 7899,
  "ĠClause": 31530,
  "ago": 3341,
  "Ġprogress": 2993,
  "ĠArthur": 13627,
  "Ġsuitable": 12725,
  "Ġcentralized": 23985,
  "ĠManit": 22095,
  "cor": 10100,
  "wire": 21160,
  "Ġwhenever": 9151,
  "ĠWireless": 25585,
  "corn": 23625,
  "Ġhitting": 8041,
  "olis": 7821,
  "Ġprosecute": 20822,
  "ĠNYC": 16990,
  "ĠEngine": 8717,
  "ĠBald": 16440,
  "rivation": 26860,
  "ĠCoffee": 21144,
  "ĠLeonardo": 31843,
  "fy": 25089,
  "LD": 14223,
  "Ġcommanded": 24986,
  "Ġwriter": 5192,
  "Ġacquitted": 28744,
  "Ġwarrant": 8652,
  "ĠRevenue": 22078,
  "uced": 13753,
  "Ġsalute": 31971,
  "Ġinhabited": 30033,
  "onde": 16450,
  "Hen": 22533,
  "Jud": 26069,
  "Ġskirt": 28341,
  "ques": 11530,
  "Ġcommitment": 6572,
  "Family": 25382,
  "Ġuna": 19730,
  "rium": 19130,
  "Ġcos": 8289,
  "What": 1965,
  "Ġlamb": 18836,
  "Ġspiritual": 8723,
  "Ġadvancement": 25748,
  "felt": 28093,
  "anoia": 26874,
  "ĠThur": 29601,
  "policy": 30501,
  "Ġfair": 2986,
  "Ġbaggage": 28043,
  "aul": 2161,
  "arlier": 7870,
  "Ġowned": 6567,
  "ĠGovernor": 9261,
  "ĠStates": 1676,
  "break": 9299,
  "acter": 6049,
  "balance": 20322,
  "Ġhousing": 4837,
  "114": 23956,
  "ĠLegend": 15349,
  "Ġconvey": 14245,
  "Ġhere": 994,
  "Ġparental": 21263,
  "Ġtelevision": 4241,
  "Ġtheories": 9696,
  "Arch": 20718,
  "ĠHamp": 10577,
  "Ġcharism": 21548,
  "Ġlik": 4017,
  "Ġseparation": 13239,
  "Ġlimb": 24939,
  "Ġmodifications": 20781,
  "Ġcampaigners": 25812,
  "arity": 6950,
  "erno": 31420,
  "ĠSeahawks": 14460,
  "neck": 27117,
  "ĠMiss": 4680,
  "Ġexplaining": 9965,
  "acas": 31795,
  "Ġfem": 2749,
  "Ġscale": 4715,
  "iddy": 31507,
  "Ġmurderous": 30019,
  "ĠUnited": 1371,
  "Ġlav": 20233,
  "Ġnotions": 23080,
  "Ġmorality": 16487,
  "Ġmish": 25012,
  "ĠInter": 4906,
  "ĠGross": 20564,
  "Ġmod": 1013,
  "ãģª": 20280,
  "Ġengagement": 10818,
  "Ġthus": 4341,
  "icers": 14773,
  "ize": 1171,
  "Ġ2021": 28102,
  "Ġpassages": 23605,
  "Orig": 13420,
  "Ġcorresponding": 13178,
  "Ġproperties": 6764,
  "Players": 26482,
  "Ġscripted": 30254,
  "ĠDam": 6935,
  "Ġ1933": 23767,
  "atra": 22735,
  "Ġcharges": 3975,
  "Ġconstit": 7171,
  "clusion": 14692,
  "Ġtaste": 7273,
  "Ġ):": 23471,
  "jamin": 11591,
  "Ġtweak": 25146,
  "Ġfraught": 31632,
  "Ġdisclosed": 14897,
  "ĠBarnes": 18257,
  "ĠVeter": 14177,
  "Ġundert": 10058,
  "ĠAR": 7348,
  "ws": 20479,
  "Ġl": 258,
  "Ġbrighter": 25384,
  "ajo": 26001,
  "Ġunfold": 14112,
  "ĠEvil": 16449,
  "adh": 17907,
  "rose": 13837,
  "Ġmembers": 1659,
  "raud": 5676,
  "Ġgram": 31333,
  "Ġfreshly": 27914,
  "rep": 7448,
  "Ġprice": 2703,
  "Ġsour": 1808,
  "ĠKong": 8793,
  "after": 9547,
  "ĠHit": 7825,
  "aved": 9365,
  "Anna": 27020,
  "signed": 30219,
  "Ġnavigation": 15909,
  "Yeah": 11106,
  "Ġdenounce": 29856,
  "ĠBrennan": 20734,
  "Now": 3483,
  "Ġrespect": 2540,
  "Ġwhereabouts": 29461,
  "Haw": 29197,
  "iams": 5165,
  "lick": 3891,
  "ĠKush": 18216,
  "ãģ¯": 20434,
  "ĠCBC": 15498,
  "opard": 13425,
  "ĠNRL": 28064,
  "Ġseries": 1851,
  "up": 856,
  "ancers": 20213,
  "ysc": 26672,
  "Ġdivided": 8769,
  "Ġlakh": 22382,
  "ĠTy": 4687,
  "umbered": 25318,
  "ĠHank": 25149,
  "Ġaqu": 15248,
  "ĠStars": 13256,
  "ornings": 23706,
  "Ġsalvation": 24480,
  "Ġpromote": 6854,
  "wait": 17288,
  "lp": 876,
  "');": 26355,
  "sound": 30790,
  "Ġuser": 3251,
  "ĠCommunity": 8351,
  "ĠArchbishop": 29069,
  "System": 23351,
  "oro": 18947,
  "Ġseamlessly": 28634,
  "ICO": 19366,
  "Ġaggression": 13834,
  "ĠPE": 20570,
  "ĠKerry": 12668,
  "ĠFisher": 13124,
  "Ġfestivals": 20869,
  "Ġconnector": 29541,
  "Ġdisproportion": 15951,
  "ĠSchneider": 21601,
  "Ġresign": 8516,
  "plus": 9077,
  "ĠEthereum": 16729,
  "Ġthree": 989,
  "ĠDerek": 17903,
  "store": 13009,
  "Ġcake": 12488,
  "gard": 23069,
  "Ġforensic": 21054,
  "ĠNorton": 27439,
  "Ġhyp": 5283,
  "Ġaltar": 28547,
  "Ġtimed": 28123,
  "incinnati": 12782,
  "ilitating": 30200,
  "ĠNaz": 11794,
  "Ġdid": 692,
  "vm": 29469,
  "Ġconsumed": 13729,
  "Ġreviews": 8056,
  "ĠM": 302,
  "Ġtries": 8693,
  "ĠGreenwald": 30651,
  "pad": 18241,
  "iol": 1537,
  "$$": 25464,
  "Eric": 20451,
  "attering": 19098,
  "oped": 20571,
  "thereum": 14884,
  "Ġship": 4339,
  "ravity": 25796,
  "ĠLambert": 30213,
  "ĠMun": 10618,
  "Ġbrightest": 28668,
  "Ġoverrun": 29700,
  "ĠAssociate": 26931,
  "ĠTo": 1954,
  "Ġarch": 3619,
  "ĠMail": 10464,
  "ORD": 17309,
  "Ġmed": 996,
  "feld": 13466,
  "cloud": 24296,
  "orts": 1846,
  "ĠReb": 19141,
  "Ġpatents": 16969,
  "Ġrocks": 12579,
  "ĠMedical": 8347,
  "Ġinterfere": 18144,
  "ĠOut": 4977,
  "team": 14791,
  "Joe": 16891,
  "tion": 5441,
  "ĠAncient": 21231,
  "Ġadvertised": 22205,
  "Bank": 25472,
  "Ġgiants": 17516,
  "Ġcommitting": 15245,
  "oggle": 30419,
  "ĠAllan": 27076,
  "ystem": 7845,
  "Mary": 22373,
  "nic": 6517,
  "Ġexcell": 5870,
  "ĠEvan": 18640,
  "Ä«": 20651,
  "Ġturnaround": 26994,
  "ĠPlus": 8848,
  "Ġdemonstrated": 8882,
  "esides": 12049,
  "ĠMar": 1477,
  "Ġtuition": 16034,
  "Ġfacility": 6353,
  "Happy": 23907,
  "ibus": 28996,
  "à¹": 29104,
  "Ġparagraphs": 30626,
  "hetically": 28662,
  "Ġminerals": 21778,
  "Ġsuccumb": 25342,
  "ĠMagn": 16924,
  "Ġcommunication": 6753,
  "month": 7579,
  "Ġbirds": 9596,
  "ĠMalcolm": 17141,
  "Ġreplication": 31973,
  "incre": 22883,
  "ikers": 23015,
  "\"âĢĶ": 31030,
  "related": 5169,
  "Ġcharacterize": 30276,
  "ĠCrist": 20704,
  "Ġaiming": 15437,
  "ĠWinnipeg": 18243,
  "ĠJensen": 29338,
  "EMENT": 11621,
  "ĠCrystal": 17258,
  "Ġappeared": 3703,
  "Ġcaf": 17177,
  "af": 1897,
  "Ġthreatens": 16971,
  "Ġhospitality": 30240,
  "ĠApril": 2645,
  "Ġpredictions": 13827,
  "Ġnotion": 8091,
  "ĠPhotograph": 14527,
  "ĠReviews": 31226,
  "Ġcasting": 12843,
  "Ġethos": 30730,
  "Ġembargo": 28730,
  "Pro": 3951,
  "outh": 1423,
  "Ġworkout": 18683,
  "Ġthrill": 24594,
  "Ġfertile": 29054,
  "Ġheel": 25955,
  "Ġentit": 7612,
  "ĠAU": 27034,
  "Ġamidst": 29742,
  "ĠRank": 17405,
  "ym": 4996,
  "However": 4168,
  "Ġexplains": 5873,
  "Ġtorped": 27893,
  "Ġrestaurants": 9164,
  "Ġnar": 5324,
  "Ġprotestors": 26973,
  "ĠKanye": 25396,
  "ĠBuchanan": 30122,
  "ĠMaxwell": 25478,
  "ĠUltimate": 17571,
  "ĠThought": 28764,
  "ĠGin": 29769,
  "\")": 8473,
  "ĠOct": 2399,
  "ĠRep": 1218,
  "alia": 8868,
  "Ġenlist": 28755,
  "Ġsecured": 12552,
  "ĠJun": 10675,
  "Ġfilibuster": 26230,
  "Ġlayer": 8512,
  "ghai": 16640,
  "Ġdive": 14774,
  "ĠOT": 24433,
  "cel": 5478,
  "Ġrefine": 28983,
  "Ġhilarious": 18470,
  "Ġrelies": 14267,
  "cin": 19555,
  "ĠNepal": 21962,
  "Ġannouncing": 12730,
  "etroit": 6405,
  "ĠPacific": 7442,
  "imposed": 30354,
  "ĠEngland": 3962,
  "Person": 15878,
  "Ġ202": 30704,
  "anding": 16709,
  "Ġrapp": 23093,
  "Element": 24836,
  "Ġfulfillment": 31275,
  "Ġarrog": 17819,
  "Ġtoilet": 15445,
  "ori": 11604,
  "ĠLSD": 25516,
  "Ġobserver": 20589,
  "ĠWP": 28455,
  "ĠChrysler": 28365,
  "Ġ<<": 22459,
  "atum": 29292,
  "Ġdinner": 7970,
  "Day": 13761,
  "Ġmaneu": 15576,
  "Ġleft": 1290,
  "Ġbark": 22131,
  "orld": 1772,
  "tit": 12224,
  "ĠEight": 17698,
  "Ġintroduced": 4746,
  "Ġneglected": 22186,
  "ĠBoyle": 30012,
  "Ġgre": 16166,
  "Ġpred": 2457,
  "ux": 3363,
  "ĠStarting": 19752,
  "Ġpure": 6060,
  "Ġterrit": 5076,
  "ĠManchester": 7983,
  "Ġhateful": 25721,
  "ating": 762,
  "/": 15,
  "Washington": 14995,
  "Ġsignific": 2077,
  "Ã¸": 18394,
  "Ġorgans": 16797,
  "ĠPir": 11632,
  "orable": 9832,
  "Ġoutfield": 19672,
  "ĠGay": 14683,
  "Ġclaw": 28045,
  "Ġshade": 20014,
  "ĠMedic": 5423,
  "Ġdots": 21994,
  "oka": 20495,
  "ĠKnight": 11364,
  "Access": 24478,
  "Ġmisc": 11642,
  "Ġknocking": 19685,
  "Ġkiller": 10940,
  "Ġteaches": 16285,
  "Ġdiscounted": 27721,
  "ĠCopyright": 17302,
  "Ġgenerating": 13720,
  "Ġignor": 10963,
  "Ġexclusion": 19400,
  "Ġregret": 11698,
  "Ġancestry": 27453,
  "ublished": 10754,
  "Ġfoll": 26101,
  "perfect": 24469,
  "Ġcamera": 4354,
  "Ġreply": 12713,
  "ĠDisplay": 23464,
  "well": 4331,
  "graph": 10381,
  "Ġcatastrophic": 17997,
  "olid": 10761,
  "Ġcylinder": 30001,
  "Ġconclusions": 12215,
  "Ġ102": 20795,
  "ĠLights": 26214,
  "Ġcomed": 11933,
  "hered": 5622,
  "Ġpoke": 25230,
  "Ġ'": 1142,
  "Ġclassified": 9067,
  "Pr": 7665,
  "ĠJon": 5204,
  "Ġgesture": 16642,
  "Ġgentleman": 24865,
  "national": 14266,
  "ĠConference": 7976,
  "Ġincremental": 26776,
  "Ġshining": 23044,
  "ĠConway": 20654,
  "Ġinaccurate": 19751,
  "Ġsadly": 19047,
  "ĠKobe": 25696,
  ");": 2969,
  "Ġcant": 23747,
  "Ġgraphic": 11534,
  "Ġprepared": 5329,
  "Ġbird": 10647,
  "Ġcasts": 27474,
  "VE": 8978,
  "archive": 30284,
  "Ġnotoriously": 23868,
  "ĠPay": 7832,
  "edge": 14747,
  "Ġunf": 3413,
  "Ġinfluenza": 30479,
  "Ġbinding": 14487,
  "Ġgall": 7629,
  "moon": 22562,
  "ĠQuarter": 19049,
  "ract": 1279,
  "Ġscores": 8247,
  "zer": 5731,
  "Ġexec": 2154,
  "Ġthousand": 7710,
  "Ġfinger": 7982,
  "Ġsanction": 16475,
  "ula": 4781,
  "Ġvarious": 2961,
  "focused": 21902,
  "rowth": 13980,
  "Ġfoul": 14607,
  "Ġlooph": 18809,
  "enson": 16168,
  "apes": 7233,
  "Ġflash": 8113,
  "Ð¸": 5434,
  "hemy": 31738,
  "Ġdiving": 20661,
  "ĠFar": 6398,
  "amb": 3516,
  "Ġsubscribing": 15113,
  "ĠSpielberg": 30556,
  "Ġsettings": 8438,
  "Ġseem": 1199,
  "ĠPublic": 5269,
  "Ġusage": 8958,
  "Ġlaughter": 20423,
  "community": 29994,
  "Track": 29702,
  "Ġavenue": 31301,
  "ĠPoverty": 27695,
  "Ġarticulate": 26655,
  "laughs": 23596,
  "Ġshakes": 30749,
  "date": 5964,
  "Ġarrange": 7952,
  "Ġgovernments": 5351,
  "ĠHulu": 27734,
  "Ġinh": 26981,
  "icans": 19230,
  "ĠCA": 8722,
  "Ġvig": 9801,
  "Ġhubs": 31836,
  "ixon": 10330,
  "rapping": 31339,
  "Common": 25229,
  "ĠBlair": 14303,
  "isc": 2349,
  "Ġrestoration": 17947,
  "Ġfalling": 7007,
  "Ġouter": 13044,
  "Ġsuspicion": 13282,
  "ĠKur": 22956,
  "intelligence": 26631,
  "Ġlongtime": 11420,
  "unless": 27390,
  "Ġhypocrisy": 22912,
  "gars": 26186,
  "ĠYorkshire": 25950,
  "ĠOri": 20015,
  "ĠNiet": 22582,
  "iel": 7833,
  "Ġgrabs": 22769,
  "Ġstainless": 31244,
  "Ġtribe": 15103,
  "Squ": 26961,
  "Chief": 20510,
  "Ġdivor": 9936,
  "Ġsuper": 2140,
  "ĠUl": 18562,
  "Ġdetail": 3704,
  "ĠFTC": 30989,
  "ĠDivine": 29085,
  "|>\"": 19339,
  "eree": 18200,
  "ĠConnecticut": 13164,
  "Ġfetch": 25001,
  "ĠMog": 28135,
  "assad": 28812,
  "inian": 19155,
  "Ġgrasp": 12734,
  "ĠSalv": 17881,
  "Ġdrunk": 10318,
  "Gs": 28121,
  "MI": 14354,
  "ĠMuch": 12013,
  "rific": 7510,
  "Ġinfinite": 16925,
  "env": 30861,
  "Ġbrewers": 26852,
  "Ġnostal": 18011,
  "Ġhorizon": 16127,
  "ĠBuffett": 28306,
  "Ġexecuting": 22986,
  "present": 22864,
  "vi": 10278,
  "kit": 17765,
  "ĠSter": 18098,
  "nt": 392,
  "ointed": 19032,
  "ĠTah": 21441,
  "Ġinhib": 12632,
  "Ġlicensed": 13179,
  "Ġmurdering": 28504,
  "Gun": 27839,
  "talk": 15378,
  "Ġkidn": 11216,
  "Ġposing": 20324,
  "ĠFont": 27010,
  "ĠIsrael": 2074,
  "Ġmerchand": 18527,
  "ĠGas": 14740,
  "Ġshowed": 3282,
  "Ġmarginal": 12034,
  "Ġiterations": 30169,
  "Ġtorch": 27539,
  "Ġcellular": 19254,
  "Ġfees": 6928,
  "inged": 29912,
  "Ġrealization": 21369,
  "loaded": 19319,
  "Ġlever": 16876,
  "ingu": 6840,
  "ĠÃ®": 19974,
  "ft": 686,
  "By": 3693,
  "Ġpredecessors": 22612,
  "ble": 862,
  "ĠCohen": 12513,
  "Ġlegitimate": 8483,
  "Ġstudent": 3412,
  "Ġcity": 1433,
  "Ġ1954": 21833,
  "ĠMahm": 22720,
  "ĠTitan": 14915,
  "Ġirrit": 16229,
  "),[": 30836,
  "Ġgranted": 7388,
  "though": 1883,
  "ĠCyber": 18282,
  "Ġgenerals": 22890,
  "Ġloves": 10043,
  "essler": 27992,
  "),": 868,
  "ĠPath": 15684,
  "cipl": 19692,
  "umbai": 15780,
  "Ġbullet": 10045,
  "inyl": 19638,
  "Ġbenefit": 4103,
  "Ġbases": 11067,
  "Ġnegotiation": 20855,
  "Ġalert": 10803,
  "ĠIX": 24457,
  "Ġdevised": 25087,
  "heres": 19256,
  "Ġfavored": 16560,
  "Ġrelying": 15451,
  "phy": 6635,
  "ĠNotes": 18779,
  "Ġmercury": 26478,
  "ĠExpect": 23733,
  "Ġglorious": 21331,
  "ĠCrimea": 17440,
  "MAN": 10751,
  "fit": 10348,
  "Ġsatellite": 9193,
  "Ġnud": 22914,
  "rath": 22790,
  "Ġfighter": 9210,
  "ĠNext": 8220,
  "Ġpromotions": 17625,
  "Ġattempting": 8409,
  "Ġdensity": 12342,
  "Ġgolden": 11846,
  "ĠSSD": 23562,
  "Ġfunctionality": 11030,
  "iolet": 22107,
  "Ġconcert": 10734,
  "Ġludic": 28335,
  "Ast": 29661,
  "bilt": 29662,
  "anked": 13306,
  "ĠMission": 13148,
  "idas": 23576,
  "Ġreaff": 25132,
  "Ġanti": 2556,
  "Ġeffectively": 5996,
  "ãĤĬ": 31663,
  "Ġwebs": 2460,
  "Copyright": 14473,
  "dogs": 21245,
  "Ġhesitate": 23840,
  "isp": 7971,
  "ĠWithout": 8817,
  "aska": 7753,
  "Ġnon": 1742,
  "Ġhon": 2844,
  "Berry": 18972,
  "Ġenact": 10907,
  "ĠRough": 27779,
  "Ġprohibited": 13647,
  "ĠBR": 15048,
  "ĠWhe": 6265,
  "ation": 299,
  "?!": 14925,
  "what": 4815,
  "Ġsinking": 23679,
  "ĠLakers": 16741,
  "Ġkne": 26142,
  "....": 3352,
  "Ġingred": 8479,
  "Ġbuses": 14093,
  "Field": 26052,
  "EN": 2678,
  "Ġshines": 31581,
  "dro": 6864,
  "Ġorthodox": 24017,
  "Ġatmospheric": 18188,
  "Ġweekends": 19113,
  "ĠShane": 20670,
  "Ġtalent": 5969,
  "Ġenz": 28865,
  "Ġorchest": 19934,
  "engeance": 26639,
  "ĠGa": 12538,
  "Ġamazed": 23265,
  "Ġinvasive": 23183,
  "Ġtouch": 3541,
  "Ġarms": 5242,
  "Ġcompare": 9175,
  "onomous": 30983,
  "other": 809,
  "ub": 487,
  "Ġoverlap": 21240,
  "ĠPope": 11005,
  "Ġclosures": 25961,
  "Ġoverwhelming": 8192,
  "ĠChapman": 23321,
  "istle": 10836,
  "Ġ32": 5032,
  "itu": 31704,
  "ĠSim": 3568,
  "ĠBryant": 14783,
  "Ġ!": 10061,
  "isy": 23617,
  "ĠBreaking": 21687,
  "election": 10555,
  "Ġnerve": 15955,
  "Ġactress": 11953,
  "Ġnightmare": 15116,
  "Ġheaders": 29919,
  "ĠBurning": 28318,
  "Ġcombines": 19839,
  "ĠIDF": 24501,
  "Patrick": 27042,
  "alt": 2559,
  "Ġconversation": 4788,
  "Christian": 17257,
  "Ġveto": 13921,
  "Ġivory": 29417,
  "now": 2132,
  "ĠApps": 25967,
  "Ġpartly": 10064,
  "Ġleaves": 5925,
  "Ġpronounced": 15331,
  "Ġmarches": 29213,
  "minent": 16394,
  "Ġproportion": 10673,
  "ĠForm": 9207,
  "de": 3058,
  "Ġblasted": 21207,
  "ĠSpec": 30515,
  "athom": 29194,
  "iencies": 20526,
  "Ġfunn": 31486,
  "ĠJPMorgan": 30630,
  "Ġconfidential": 14772,
  "ĠArray": 24466,
  "Ġvary": 8217,
  "ĠPast": 15470,
  "Ġmerits": 19736,
  "Ġvodka": 31702,
  "Ġ))": 25682,
  "ĠWith": 2135,
  "Ġresid": 16123,
  "ĠTac": 25624,
  "Ġannounces": 24951,
  "Ġsoon": 2405,
  "ĠÑĩ": 31006,
  "Ġsucc": 16737,
  "ipping": 5432,
  "ĠArena": 12073,
  "ĠAid": 23234,
  "Ġdoom": 25688,
  "rimin": 9026,
  "Ġbrand": 4194,
  "ĠNov": 5515,
  "ĠShould": 11008,
  "Ġmanageable": 31958,
  "Ġgrades": 18447,
  "Ġjustice": 4690,
  "Ġtun": 5694,
  "Ġcombining": 18253,
  "Ġ47": 7822,
  "ompl": 5679,
  "ĠMo": 4016,
  "ĠDispatch": 28556,
  "ruck": 30905,
  "bits": 9728,
  "icky": 19878,
  "Down": 11200,
  "Ġpremiere": 14612,
  "OK": 9228,
  "Gl": 10630,
  "unte": 5817,
  "Ġharassing": 30743,
  "Ġbou": 31412,
  "ĠIT": 7429,
  "PL": 10083,
  "ĠRocket": 22481,
  "imens": 12584,
  "ressive": 5296,
  "Ġwillingness": 13690,
  "Palest": 23551,
  "Ġshift": 5590,
  "Ġfew": 1091,
  "ĠNoble": 22474,
  "ĠMacron": 24067,
  "abin": 5784,
  "ĠiPad": 10774,
  "Ġmorning": 2979,
  "ĠOpportun": 24011,
  "Ġfreight": 27420,
  "Ġinterview": 2266,
  "ryn": 28990,
  "Ġwithdrawing": 30461,
  "ĠPure": 24122,
  "ĠNBN": 30135,
  "doc": 21035,
  "Un": 3809,
  "Ġspectrum": 9791,
  "Ġhypot": 8359,
  "CB": 29264,
  "ĠBlog": 12423,
  "Ġmol": 17205,
  "ĠKatrina": 25301,
  "ĠLeslie": 23438,
  "ĠCharg": 14647,
  "Ġtenant": 28514,
  "ĠFri": 22631,
  "Ġalien": 8267,
  "ĠNation": 7601,
  "ĠHav": 21972,
  "Ġshirt": 10335,
  "Ġlayers": 11481,
  "Ġscandal": 8282,
  "Ġphysicist": 24854,
  "Ġprosecutions": 29914,
  "ĠAlto": 31781,
  "Ġbore": 19600,
  "Ġglut": 26816,
  "inction": 8939,
  "Ġinsisted": 9023,
  "Outside": 26644,
  "Ġtopping": 30387,
  "owship": 24256,
  "Ġdetailing": 19700,
  "Ġcombo": 17941,
  "ĠAld": 14408,
  "Ġcopy": 3570,
  "Ġflatten": 28731,
  "Ġinflammation": 22964,
  "ĠPD": 9247,
  "Ġrouting": 29546,
  "ĠRings": 27128,
  "ĠKo": 17294,
  "Ġcapabilities": 8956,
  "iter": 4825,
  "ãĤĵ": 29829,
  "oen": 7919,
  "ĠSavage": 22784,
  "Ġspokeswoman": 9118,
  "rans": 25797,
  "Ġcoded": 29671,
  "Ġbypass": 16246,
  "Ġrev": 2478,
  "Ġdetectives": 20109,
  "Ġ->": 7894,
  "Ġgrappling": 30143,
  "Ġthreatening": 9404,
  "ĠActiv": 16361,
  "Ġcoordinator": 12301,
  "Ġhedge": 16527,
  "Ġ($": 7431,
  "acity": 4482,
  "ĠGuy": 13134,
  "irl": 2101,
  "Pack": 23598,
  "Ġinn": 3149,
  "secut": 3867,
  "Invest": 16217,
  "phones": 8408,
  "Ġclips": 18014,
  "Ġgirl": 2734,
  "Ġhobby": 18490,
  "ĠWave": 22206,
  "Ġos": 26453,
  "Ġshake": 12287,
  "ĠApart": 21204,
  "UT": 5727,
  "drive": 24181,
  "oun": 859,
  "ĠAFP": 11592,
  "ĠUpgrade": 26993,
  "ordination": 30070,
  "Mir": 29052,
  "ãģĵ": 30951,
  "ĠUnder": 5201,
  "Ġsurviving": 16096,
  "Ġpunch": 10359,
  "ĠEpstein": 30149,
  "Ġreadiness": 27713,
  "Ġregarding": 5174,
  "Ġmunicipality": 29731,
  "ĠNob": 7963,
  "OTUS": 31576,
  "Ġtreats": 17816,
  "andum": 24885,
  "Ġholding": 4701,
  "Ġslows": 31483,
  "lar": 19131,
  "Ê": 133,
  "dit": 8623,
  "Ġdecriminal": 27542,
  "ĠTracy": 27415,
  "Ġadvers": 14652,
  "adas": 31485,
  "rentice": 23271,
  "ĠKuwait": 22705,
  "Ġbully": 23758,
  "Ġelected": 5407,
  "lib": 12808,
  "Ġcommunicate": 10301,
  "Ġn": 257,
  "Ġextensions": 18862,
  "Ġfrequent": 10087,
  "Ġomin": 25815,
  "Ġtick": 4204,
  "Ġmogul": 28940,
  "April": 16637,
  "ĠLed": 19936,
  "Ġcreates": 7740,
  "usal": 6282,
  "mala": 25603,
  "ĠAction": 8390,
  "Ġgam": 8544,
  "ĠKing": 3089,
  "Ġenvironmentally": 27947,
  "ah": 957,
  "Ġwithin": 1696,
  "Ġopenings": 27068,
  "Ġinstituted": 30460,
  "ĠMove": 10547,
  "Ġsoul": 7113,
  "Su": 21622,
  "Ġcopied": 20920,
  "Ġmadness": 21663,
  "ĠGlasgow": 19469,
  "object": 21012,
  "Ġintrodu": 2799,
  "ĠGam": 16744,
  "Ġshot": 2579,
  "Ġcommercially": 22922,
  "Ġfinance": 7690,
  "ĠTurkish": 7991,
  "Ġ),": 15014,
  "coin": 3345,
  "ĠRob": 3918,
  "lost": 30425,
  "Ġrequire": 2745,
  "ĠKid": 18549,
  "Ġcooperating": 28330,
  "ĠHurricanes": 29175,
  "rea": 18782,
  "Ġicons": 17263,
  "lander": 20547,
  "fun": 18103,
  "ĠBonus": 30552,
  "Ġsleek": 29614,
  "ĠGret": 29653,
  "ctor": 2599,
  "Ġrewritten": 24422,
  "Rob": 14438,
  "Ġmindfulness": 30731,
  "Ġhiking": 23928,
  "Ġactually": 1541,
  "aley": 13711,
  "Ġsom": 20679,
  "wright": 25332,
  "Ġpayments": 7107,
  "ĠTickets": 26074,
  "put": 2496,
  "Ġreward": 6801,
  "onents": 3778,
  "ĠSnap": 15596,
  "few": 27445,
  "ĠVerizon": 13524,
  "Those": 7958,
  "Ġsurviv": 9887,
  "ĠSurface": 18176,
  "Del": 16991,
  "ggle": 15893,
  "CO": 9302,
  "Ġchuck": 20939,
  "nn": 22491,
  "Ġorganization": 3547,
  "ĠFallon": 29369,
  "kward": 11652,
  "Ġextremist": 16068,
  "Ġtower": 11081,
  "ĠCheney": 20733,
  "ĠUltra": 21275,
  "May": 6783,
  "ĠTier": 21487,
  "Ġenthus": 7322,
  "Ġcentury": 3593,
  "ĠWATCH": 14134,
  "Ġprev": 1313,
  "Ġreactors": 20558,
  "cers": 7015,
  "Ùİ": 17731,
  "Ġmeditation": 16346,
  "Ġplanes": 11976,
  "ĠSpike": 26831,
  "ĠMcN": 18598,
  "Ġkeys": 9341,
  "Ġseasonal": 19807,
  "Ġnovels": 13314,
  "ords": 4218,
  "Ġpsychology": 13523,
  "ãģ£": 25910,
  "Ġstupid": 8384,
  "Ġdream": 5501,
  "Ġinterests": 4733,
  "Ġstraightforward": 14091,
  "taking": 23124,
  "azingly": 23615,
  "Ġscrapped": 27354,
  "Ġcouncil": 5376,
  "Naz": 30277,
  "ì": 167,
  "Ġfierce": 13223,
  "oad": 1485,
  "udo": 24263,
  "Ġprolifer": 17877,
  "ĠOsw": 26841,
  "ining": 3145,
  "ãģĨ": 26801,
  "ĠÐ": 3459,
  "Ġresurrect": 26503,
  "Ġlamented": 30571,
  "ĠSons": 29358,
  "isher": 5411,
  "zman": 26646,
  "Ġatheist": 18894,
  "usat": 26543,
  "Security": 23161,
  "leen": 17331,
  "Ġdescribed": 3265,
  "Ġconserv": 3110,
  "Ġoffering": 5390,
  "Hon": 27214,
  "Ġdisplaced": 17173,
  "ĠEvents": 21385,
  "TR": 9945,
  "Ġjersey": 17653,
  "olf": 4379,
  "third": 15469,
  "Ġcannot": 2576,
  "ÃŃa": 17390,
  "ĠWarrior": 22020,
  "lor": 4666,
  "Ġcherry": 23523,
  "Ġapplication": 4063,
  "Ġvanished": 24161,
  "Ġavoided": 12743,
  "ss": 820,
  "pora": 29578,
  "Ġtendency": 12806,
  "Ġcrippling": 31214,
  "uz": 9828,
  "Ġrazor": 27052,
  "Ġturmoil": 20998,
  "Ġstimulate": 24285,
  "Ġextr": 24435,
  "Ġrulings": 25976,
  "Ġrecipe": 9702,
  "inav": 24116,
  "Ġ180": 13925,
  "cifically": 17298,
  "Ġprogressives": 22136,
  "boxes": 31793,
  "Ġformal": 7794,
  "Ġharm": 4374,
  "Name": 10609,
  "writ": 5812,
  "Ġmanipulating": 26611,
  "ĠUK": 2965,
  "Ġunfairly": 24451,
  "bul": 14229,
  "appings": 30082,
  "Ġ25": 2243,
  "ONG": 23030,
  "Ġterritories": 14115,
  "ĠStudio": 13443,
  "Ġamazingly": 29509,
  "Ġcreators": 13573,
  "imation": 21553,
  "Ġheavyweight": 23655,
  "Ġmystery": 10221,
  "Ġgenet": 13545,
  "ĠLeban": 10590,
  "Ċ": 176,
  "Ġ2020": 9038,
  "App": 5744,
  "born": 6346,
  "ĠLoss": 30636,
  "Ġvehement": 29733,
  "...)": 31519,
  "sum": 19015,
  "soon": 28095,
  "ĠNewt": 27259,
  "Ġpaid": 3211,
  "Ġ()": 13053,
  "Ġquickly": 2836,
  "Ġsighed": 29357,
  "Ġrud": 28115,
  "Ġwalked": 6639,
  "NOT": 20138,
  "Ġdisasters": 19723,
  "ĠCzech": 14700,
  "aked": 4165,
  "ĠJackie": 21788,
  "Ġpublishers": 14205,
  "Ġobliv": 25311,
  "lus": 25687,
  "Ġkilled": 2668,
  "owing": 8075,
  "****": 4710,
  "irc": 2002,
  "Ġsob": 26267,
  "Ġspy": 12203,
  "Ġbitcoin": 7540,
  "kay": 6151,
  "json": 24153,
  "UI": 13556,
  "Ġfer": 11299,
  "Few": 25554,
  "imen": 19447,
  "At": 2642,
  "ĠWeekend": 27683,
  "amous": 9948,
  "ĠSocialist": 17671,
  "oby": 25212,
  "ĠCory": 24474,
  "ĠKlein": 18433,
  "tainment": 10466,
  "ipment": 30399,
  "Ġslump": 29360,
  "Ġcaucus": 17127,
  "Ġabolished": 27430,
  "Ġmph": 14225,
  "Ġnom": 3558,
  "fake": 26166,
  "Using": 13226,
  "Ġconf": 937,
  "ahan": 15626,
  "Ġcakes": 31302,
  "ĠCli": 19250,
  "ĠHuman": 5846,
  "lude": 13611,
  "adelph": 7299,
  "last": 15085,
  "Bur": 21643,
  "Ġcopying": 24788,
  "birds": 31395,
  "PT": 19177,
  "ĠFun": 12828,
  "Ġmund": 23780,
  "Ġnear": 1959,
  "ĠHistorical": 24332,
  "Ġunfolded": 28863,
  "ason": 777,
  "Ġtheatrical": 24397,
  "Ġdemocracy": 6197,
  "Ġaccordingly": 16951,
  "ĠHappy": 18142,
  "ĠCasey": 17910,
  "Ġflights": 10902,
  "Ġevacuation": 22579,
  "ĠHalloween": 15619,
  "Ġexplosion": 10324,
  "Ġenh": 6153,
  "Ġcompensation": 10107,
  "ĠYuk": 27730,
  "Ġbraz": 30673,
  "ivision": 31683,
  "D": 36,
  "Ġclearer": 19558,
  "Ġastronaut": 15073,
  "Ġchess": 17856,
  "Ġfutile": 31251,
  "Exception": 29116,
  "ĠStaff": 10284,
  "Ġhaw": 19329,
  "ĠBank": 4463,
  "Ġsecuring": 16957,
  "Ġsings": 29911,
  "Ġhumility": 30906,
  "ĠBrow": 21375,
  "Ġcited": 7695,
  "ĠSkype": 21165,
  "rough": 693,
  "pty": 6251,
  "Ġseafood": 29297,
  "dest": 17898,
  "ĠCel": 19674,
  "ĠAntonio": 10321,
  "Ġ197": 2628,
  "Ġnose": 10272,
  "oh": 1057,
  "cer": 1014,
  "USD": 30972,
  "Ġgather": 5926,
  "Residents": 31810,
  "ī": 188,
  "Ġrolling": 10139,
  "Ġcommer": 4001,
  "Ġsec": 735,
  "Ġpurs": 4476,
  "Ġfonts": 27554,
  "IR": 6422,
  "ĠJohnson": 4317,
  "cross": 21167,
  "Ġreaching": 8108,
  "Ġtolerate": 19514,
  "Ġantis": 25808,
  "ĠLu": 6886,
  "ĠMor": 3297,
  "ĠHDMI": 30816,
  "Ġpneum": 27579,
  "Ġmonsters": 13318,
  "Without": 15610,
  "facing": 25354,
  "card": 10871,
  "owa": 7024,
  "Ġpicked": 5886,
  "aning": 7902,
  "Ġappetite": 19516,
  "Ġeffective": 4210,
  "Ġdiffers": 24277,
  "degree": 14534,
  "ĠGN": 17742,
  "Ġapproved": 5756,
  "ĠLuna": 29926,
  "Ġtaxation": 21333,
  "awa": 6590,
  "rence": 6712,
  "home": 13368,
  "Ġcivilizations": 31484,
  "ahl": 13688,
  "Ġbacking": 9814,
  "Res": 5875,
  "risy": 21801,
  "ĠCH": 8796,
  "ĠMolly": 30235,
  "Ġpharmacy": 29997,
  "Ġresponsible": 4223,
  "orers": 28640,
  "ĠBoy": 6387,
  "ĠGovern": 3717,
  "Ġcrossover": 25525,
  "Ġantibiotics": 20086,
  "nergy": 5937,
  "ĠBond": 13811,
  "Ġremain": 3217,
  "ĠDucks": 21592,
  "Ġhill": 13182,
  "Ġbelieves": 4677,
  "ĠDepending": 24961,
  "html": 9413,
  "Ġray": 30116,
  "Ġpropri": 14891,
  "Ġabused": 13900,
  "Ġriding": 9659,
  "Ġforthcoming": 16830,
  "ĠHamb": 22115,
  "ĠWhis": 29592,
  "Ġexpands": 24265,
  "eu": 12760,
  "ĠSharp": 23606,
  "Ġembrace": 10589,
  "onel": 24325,
  "Andy": 28587,
  "ĠAuto": 14578,
  "Ġsal": 3620,
  "aternal": 15547,
  "Ġcoll": 2647,
  "idges": 14401,
  "ĠNapole": 24844,
  "Ġdismissed": 9076,
  "Ġattribut": 26813,
  "ension": 3202,
  "ĠGall": 7151,
  "rif": 9637,
  "Experts": 29584,
  "Mother": 30511,
  "rate": 4297,
  "ild": 651,
  "Ġkeen": 11211,
  "ĠEventually": 14975,
  "wave": 20323,
  "Ġoutset": 26579,
  "verty": 6899,
  "File": 16810,
  "ient": 1194,
  "You": 1774,
  "Ġrestraining": 31852,
  "Ġinstantly": 11965,
  "Ġmonths": 1685,
  "project": 20656,
  "Bad": 22909,
  "ederation": 9270,
  "Ġvital": 8221,
  "Ġcomplete": 1914,
  "Ġinterviews": 7949,
  "ĠMed": 2317,
  "Ġattacker": 14065,
  "iture": 9883,
  "Ġleadership": 4436,
  "ĠAdding": 27609,
  "Ġaccused": 4359,
  "significant": 29303,
  "ĠHall": 4433,
  "Ġthrown": 8194,
  "Ġdeveloper": 7100,
  "ĠBapt": 17038,
  "Ġpresents": 10796,
  "Ġintimid": 10958,
  "Ġrounded": 19785,
  "ĠHilton": 27456,
  "ĠPed": 12854,
  "NS": 9108,
  "anced": 3180,
  "Ġplacement": 16504,
  "Ġupdate": 4756,
  "ĠWell": 4064,
  "Ġincorrectly": 22849,
  "yang": 15479,
  "Vict": 20976,
  "Ġimmigration": 5050,
  "oot": 1006,
  "idy": 18319,
  "Ġunreliable": 26444,
  "Ġabstraction": 29368,
  "Ġiv": 23674,
  "Ġcontracts": 7660,
  "Ġenhancement": 29568,
  "Ġexercises": 14411,
  "ĠMartha": 25020,
  "political": 19037,
  "Ġjourneys": 30996,
  "Ġdou": 2211,
  "ouses": 11327,
  "odor": 26319,
  "ern": 1486,
  "ĠStandards": 23510,
  "ĠArduino": 28842,
  "Ġannounced": 2574,
  "Ġorganizing": 13344,
  "DER": 27106,
  "ĠCT": 16290,
  "ve": 261,
  "ĠColombian": 31163,
  "uggets": 25621,
  "Ġteaser": 31141,
  "Ġhanging": 10345,
  "Ġideally": 27724,
  "Tem": 21288,
  "Ġinstit": 5280,
  "KY": 30196,
  "ĠBecome": 30223,
  "generated": 28620,
  "ĠWebster": 27077,
  "Ġimproved": 6172,
  "Ġchunks": 22791,
  "($": 21021,
  "deep": 19042,
  "ĠCorps": 12051,
  "Ġreferences": 10594,
  "astes": 16911,
  "ibling": 29039,
  "ĠRecord": 14731,
  "Ġ0": 1068,
  "Ġshel": 6855,
  "Ġresearching": 21193,
  "Ġexercising": 24468,
  "ĠRenew": 27081,
  "ĠWriting": 22517,
  "Ġimportantly": 9466,
  "ĠAthe": 25588,
  "Ġfloated": 25355,
  "Ġ//": 5750,
  "ĠEnjoy": 22799,
  "BER": 14620,
  "unky": 25706,
  "Ġcircles": 12174,
  "bard": 19576,
  "ĠDerby": 26146,
  "Ġindustry": 2332,
  "ĠSteven": 7235,
  "Ġpropos": 4061,
  "Ġagriculture": 11980,
  "Ġmagnitude": 13472,
  "ĠUpdated": 21486,
  "ities": 812,
  "Ġmysteries": 25244,
  "ĠNath": 30375,
  "Q": 49,
  "Ġheterosexual": 21739,
  "rition": 10970,
  "ĠInfinite": 31831,
  "Ġtwe": 3526,
  "IAN": 24515,
  "ĠBorder": 15291,
  "Ġoutrage": 9392,
  "750": 18878,
  "Ġnorthern": 6802,
  "ĠMay": 1608,
  "Ġban": 2120,
  "char": 13224,
  "Ġbelly": 22015,
  "126": 27250,
  "Ġovershadow": 28190,
  "ĠHo": 8612,
  "ĠAnimals": 26629,
  "Ġlbs": 21771,
  "ĠPlate": 30493,
  "ĠGrill": 31559,
  "psons": 27805,
  "ĠMoment": 29687,
  "ĠSur": 4961,
  "Ġstrides": 28346,
  "ping": 11405,
  "ĠAst": 9003,
  "ĠBaltimore": 8657,
  "ĠâĢĶ": 708,
  "Ġnicknamed": 28658,
  "Ġwith": 308,
  "Ġcrashes": 17537,
  "Ġbasket": 6699,
  "Ġalleged": 3521,
  "tree": 23961,
  "Ġarr": 9997,
  "brain": 27688,
  "inters": 20485,
  "Ġrelief": 7846,
  "Ġjury": 8285,
  "mal": 7502,
  "Ġarter": 31077,
  "itures": 21769,
  "Ġsto": 3784,
  "uff": 1705,
  "ĠGNOME": 31999,
  "Ġdropped": 5072,
  "reb": 22771,
  "Ġpowers": 5665,
  "uez": 12153,
  "itage": 8851,
  "Main": 17921,
  "Ġappalling": 26942,
  "growing": 19861,
  "Ġcigar": 31021,
  "ĠMil": 4268,
  "ĠDiff": 21684,
  "ĠMR": 22608,
  "Ġdisappro": 18778,
  "Ġconsistent": 6223,
  "turned": 25814,
  "ivier": 30028,
  "ĠHousing": 17805,
  "Ġdissip": 29081,
  "Ġtransp": 6973,
  "Saudi": 29038,
  "Ġmeth": 10893,
  "Ġho": 7742,
  "meaning": 22638,
  "ĠLiberia": 29826,
  "TP": 9608,
  "Ġword": 1571,
  "Ġhourly": 28776,
  "Ġtemporal": 22794,
  "Select": 26483,
  "Ġextent": 6453,
  "Ġdemocratic": 8279,
  "Indian": 26040,
  "Ġhandles": 17146,
  "Ġexpon": 20351,
  "Ġveh": 2953,
  "eson": 31423,
  "igenous": 9857,
  "):": 3696,
  "Ġloud": 7712,
  "Ġspecifics": 19578,
  "Ġmetallic": 29003,
  "Ġwhether": 1636,
  "ĠAffordable": 15407,
  "sten": 23682,
  "Ġconcentrations": 16922,
  "Scott": 16061,
  "ijuana": 4024,
  "ĠBuzz": 14211,
  "Ġlineage": 29572,
  "Ġworkouts": 26520,
  "ĠRSS": 21905,
  "aba": 14360,
  "early": 10453,
  "ruct": 1368,
  "ĠAlexis": 26023,
  "seys": 22572,
  "Ġmedic": 6636,
  "close": 22609,
  "Ġbounds": 21670,
  "liminary": 12331,
  "Ġleaders": 2165,
  "Ġguid": 10432,
  "manship": 23757,
  "Ġvolumes": 14289,
  "Ġremed": 20719,
  "Ġincreasingly": 5107,
  "Ġsurveyed": 17009,
  "Ġforefront": 21019,
  "kins": 4650,
  "ĠDomin": 11826,
  "Daily": 26918,
  "Pict": 20405,
  "alties": 9960,
  "ĠPoland": 10908,
  "Status": 31003,
  "Ġtires": 17963,
  "Ġleave": 2636,
  "Ġcom": 344,
  "Ġdoct": 11048,
  "Ġpayment": 7157,
  "emy": 21550,
  "aux": 13460,
  "ĠPadres": 28264,
  "ĠRoss": 8573,
  "inder": 7545,
  "Ġre": 259,
  "Ġresigned": 12494,
  "Ġdebates": 11832,
  "Ġcompuls": 21425,
  "ĠICO": 25065,
  "ĠNate": 21620,
  "brook": 17565,
  "apping": 5624,
  "ĠSonic": 22553,
  "Ġexecutives": 9575,
  "map": 11685,
  "Ġvariability": 24723,
  "ĠHitler": 10528,
  "ĠRamadan": 30430,
  "Ġportrayed": 15197,
  "omo": 15074,
  "Ġcommem": 15897,
  "itated": 13741,
  "uffled": 29678,
  "arcer": 15298,
  "ociated": 19590,
  "BBC": 27198,
  "Ġclient": 6045,
  "ursor": 25271,
  "Ver": 15350,
  "ĠThomas": 5037,
  "Ġkissing": 28014,
  "Ġfailed": 3561,
  "Ġvon": 13895,
  "secutors": 21409,
  "Ġcontemporary": 10260,
  "ĠRailroad": 31832,
  "Ġslain": 30648,
  "ratt": 22013,
  "urities": 11983,
  "ĠRepresentative": 18000,
  "ĠIm": 2060,
  "Ġtossed": 20848,
  "ĠKick": 9955,
  "Ġobs": 2691,
  "Ġlift": 10342,
  "Ġgamers": 13264,
  "OTO": 25238,
  "ĠAbsolutely": 25432,
  "her": 323,
  "Ġ1994": 8915,
  "Ġhasn": 4739,
  "Ġcave": 11704,
  "ilem": 18455,
  "Ġ18": 1438,
  "Ġannounce": 4311,
  "pires": 23995,
  "aneous": 14510,
  "Ġprag": 19634,
  "Ġfears": 8340,
  "Record": 26764,
  "Ġprotested": 22044,
  "Ġshoppers": 24625,
  "Ġsquarely": 30609,
  "ĠVenezuelan": 26300,
  "ITH": 14405,
  "BI": 3415,
  "Ġproxy": 15922,
  "vor": 16159,
  "inating": 9180,
  "ola": 5040,
  "Ġquo": 14640,
  "ĠKer": 16466,
  "ĠCrow": 15588,
  "Ġaveraging": 17364,
  "ularly": 2463,
  "Ġheartbreaking": 28904,
  "âĸĪâĸĪâĸĪâĸĪ": 26305,
  "Ġtempor": 10012,
  "ĠPione": 29563,
  "Major": 23250,
  "Ġdepended": 30987,
  "use": 1843,
  "ĠByz": 31448,
  "Ġrode": 20542,
  "ĠSund": 2795,
  "Something": 20768,
  "ĠMormon": 13377,
  "Ġexper": 1044,
  "ĠACL": 14272,
  "Gate": 24191,
  "Ġexpenses": 10599,
  "Ġcurved": 27743,
  "ĠKet": 27412,
  "Ġprivacy": 5611,
  "ĠHot": 7408,
  "Ġdraw": 3134,
  "GC": 17292,
  "ĠFox": 4486,
  "Ġbreaking": 6312,
  "Ġproceeding": 23766,
  "hester": 18028,
  "ĠPierre": 18042,
  "ĠPHP": 18402,
  "cript": 6970,
  "For": 1827,
  "hu": 15782,
  "Ġelect": 1498,
  "Ġweigh": 9346,
  "Ġassigned": 9620,
  "ķ": 200,
  "BE": 14872,
  "Ġappreciated": 16844,
  "ĠClarks": 29379,
  "omed": 9640,
  "izophren": 18672,
  "Ġfat": 4127,
  "ĠWelsh": 17990,
  "bl": 2859,
  "Ġflight": 5190,
  "uber": 18543,
  "ĠCrowd": 28694,
  "Ġsacrifice": 12138,
  "atically": 4455,
  "Ġhistorically": 12265,
  "ĠAtmosp": 30335,
  "stated": 18211,
  "usement": 26180,
  "Ġremove": 5417,
  "ĠMeasure": 30825,
  "ĠBA": 22848,
  "Ġaward": 5030,
  "ĠVolks": 24233,
  "Ġsche": 3607,
  "Ġforgiven": 30293,
  "Ġchamp": 20953,
  "Ġfoss": 8661,
  "Ġlag": 19793,
  "Ġdeputies": 17175,
  "ĠNan": 20639,
  "ournal": 2311,
  "Ġeasier": 4346,
  "Ġvariables": 10883,
  "Ġblockbuster": 24760,
  "Ġcaps": 10856,
  "ging": 2669,
  "0000": 5703,
  "Ġoverturned": 21649,
  "ghan": 4438,
  "Ġtasted": 31022,
  "Ġoffense": 6131,
  "Ġwholly": 18808,
  "ĠEllis": 17986,
  "Ġplanted": 17695,
  "Ġincrease": 2570,
  "ĠPurd": 26094,
  "rie": 5336,
  "Seattle": 29447,
  "Ġobligations": 14642,
  "ĠRail": 12540,
  "Web": 18111,
  "ĠBrend": 16296,
  "Ġlinebacker": 14422,
  "ĠWatkins": 30038,
  "ĠGrant": 11318,
  "Ġreserves": 12525,
  "AGE": 27231,
  "ĠSerbia": 22351,
  "Ġreduced": 5519,
  "Ġrighteous": 23670,
  "ĠARE": 19814,
  "Ã¨": 10742,
  "natural": 11852,
  "ĠHispanics": 26544,
  "Ġviewer": 17354,
  "Ġspan": 10226,
  "Iraq": 25401,
  "ĠCasc": 31888,
  "Ġearthquake": 13715,
  "ĠJak": 22010,
  "Ġrealized": 6631,
  "exe": 24782,
  "Ġ1944": 19826,
  "enos": 25044,
  "Ġenergetic": 23860,
  "ĠIBM": 15232,
  "ĠDenmark": 14202,
  "ĠâĪ": 17823,
  "fed": 20649,
  "Ġprecise": 6749,
  "ĠSenators": 16525,
  "Ġsupervision": 21163,
  "ort": 375,
  "ordinator": 30241,
  "ĠRoberts": 9173,
  "Ġschizophrenia": 22983,
  "ĠSex": 11845,
  "anc": 1118,
  "Ġoperations": 4138,
  "Ġgarden": 11443,
  "Ġ103": 21694,
  "Ġdesktop": 10460,
  "Ġphysic": 17383,
  "Ġlabelled": 25730,
  "ĠOm": 17592,
  "ĠMonument": 29793,
  "Ġuncommon": 18308,
  "Ġappears": 3498,
  "arus": 22658,
  "rage": 7320,
  "ĠVeterans": 18108,
  "ife": 864,
  "ĠCurrent": 10770,
  "Almost": 19852,
  "Ġoff": 502,
  "ublic": 717,
  "ĠSurvivor": 28917,
  "Ġfascinating": 12023,
  "ĠVault": 27506,
  "Ġlabel": 5998,
  "ĠSporting": 25591,
  "Ġearnings": 11554,
  "Ġjurisdiction": 15077,
  "Ġflame": 20432,
  "Ġshowcase": 17650,
  "pensive": 22893,
  "CBC": 22276,
  "ĠGirls": 15637,
  "READ": 13742,
  "ixed": 8764,
  "Ġpir": 10680,
  "Ġe": 262,
  "Ġautomation": 18344,
  "AME": 16602,
  "lines": 5716,
  "ĠLocke": 31005,
  "Ġclasses": 6241,
  "Ġconfronted": 14760,
  "Ġkilling": 4935,
  "journal": 22888,
  "ĠAbuse": 26851,
  "ĠKh": 4802,
  "FB": 27274,
  "Ġintentional": 20085,
  "Ġshots": 6182,
  "Ġpropose": 16420,
  "ĠOdd": 23715,
  "Ġrede": 14797,
  "Ġpeas": 23423,
  "Ġresponders": 27271,
  "Ġartists": 6591,
  "Ġuncom": 7801,
  "ida": 3303,
  "osphere": 18921,
  "Ġshipping": 9906,
  "Ġextremists": 16162,
  "Ġblanket": 18398,
  "fuel": 25968,
  "Ġmuscles": 15006,
  "Ġhostage": 19360,
  "ĠHed": 28087,
  "Ġinterface": 7811,
  "ĠWhy": 4191,
  "ĠRove": 28788,
  "Ġfue": 26395,
  "Ġneural": 15413,
  "ĠPos": 19838,
  "Ġbegins": 6147,
  "ave": 992,
  "Ġmanipulate": 17752,
  "Ġsup": 7732,
  "Ġ86": 14484,
  "Ġ46": 8105,
  "Ġillustrates": 20040,
  "Ġloops": 24777,
  "ĠIMA": 28463,
  "Ġstations": 7636,
  "ĠGaal": 30088,
  "Ġdiplomat": 21367,
  "ĠProgress": 11936,
  "Ġwondered": 13170,
  "Ġafternoon": 5584,
  "ĠKe": 3174,
  "Ġethical": 12967,
  "Ġshelter": 11332,
  "Ġcurb": 16626,
  "ĠEisenhower": 27180,
  "Ġfuels": 13824,
  "Ġtiers": 30926,
  "ĠLe": 1028,
  "ĠSide": 12386,
  "Vis": 17409,
  "ĠChiefs": 15677,
  "Ġhex": 21872,
  "Ġagendas": 29600,
  "Elect": 19815,
  "ĠStr": 6301,
  "uates": 11840,
  "Ġpriorit": 17417,
  "ĠLiberation": 24614,
  "ĠWheeler": 22420,
  "Ġprohibiting": 27901,
  "ĠFal": 9731,
  "Ġbelongs": 14384,
  "Ġpast": 1449,
  "ĠMilton": 26250,
  "Ġcha": 7986,
  "ĠSeth": 17863,
  "Ġdisproportionate": 26029,
  "ĠCreed": 27782,
  "ĠCommunication": 28020,
  "hensive": 29234,
  "Other": 5949,
  "ĠFaith": 18474,
  "Process": 31441,
  "Ġmalware": 15038,
  "Times": 24934,
  "Ġbone": 11363,
  "ailure": 23393,
  "Ġfraudulent": 21497,
  "ĠFlash": 11401,
  "Ġlif": 3745,
  "Ġrecommend": 4760,
  "ĠLen": 11963,
  "itives": 19525,
  "Ġden": 2517,
  "Ġunse": 29744,
  "Ġsaw": 2322,
  "Ġweird": 7284,
  "Ġnext": 1177,
  "Ġflower": 16592,
  "Ġrevised": 14297,
  "ĠNegro": 28207,
  "OL": 4487,
  "Ġheight": 6814,
  "Der": 28079,
  "ium": 1660,
  "epernick": 22646,
  "Ġclutch": 22376,
  "Ġprevents": 16175,
  "Ġaddicted": 25855,
  "Ġinefficient": 25905,
  "Ġrecon": 10358,
  "ĠVision": 20427,
  "hed": 665,
  "alog": 12951,
  "Ġdebt": 4166,
  "ĠSixth": 30413,
  "Ġphr": 7440,
  "ĠGrace": 18184,
  "Pros": 31521,
  "ĠBuy": 13442,
  "Ġredef": 28251,
  "Ġapproach": 2814,
  "Ġhydrogen": 15154,
  "Ġacceler": 7769,
  "ulous": 6459,
  "Ġquake": 27788,
  "Ġpresidents": 14471,
  "That": 2097,
  "ĠPoke": 18644,
  "pay": 16258,
  "Ġnarrowed": 31568,
  "|": 92,
  "Ġtempting": 25626,
  "Ġfirearm": 15133,
  "ĠTuc": 27463,
  "Ġseed": 9938,
  "Ġcustomer": 6431,
  "almost": 24234,
  "ĠTory": 14156,
  "Ġhearing": 4447,
  "pir": 3105,
  "October": 19150,
  "being": 11091,
  "cedented": 9679,
  "ournament": 17953,
  "OB": 30858,
  "opez": 17410,
  "ĠBaseball": 15726,
  "post": 6760,
  "Ġcite": 19850,
  "ryan": 26284,
  "ĠOctober": 2911,
  "responsible": 19271,
  "ĠBring": 26796,
  "rections": 17804,
  "Ġdies": 9996,
  "Ġpressed": 12462,
  "ĠCL": 11539,
  "ĠJoel": 16561,
  "Ġhal": 9493,
  "Ñĥ": 10290,
  "Ġfinals": 14537,
  "chair": 14519,
  "Ġcabinet": 10698,
  "Ġinsulting": 23320,
  "Ġtrains": 11504,
  "Ġsaga": 21991,
  "Ġwhistleblower": 25722,
  "ĠQueen": 8414,
  "Ġstructures": 7998,
  "Fs": 31752,
  "Ġ(": 354,
  "ĠSounds": 27915,
  "ĠHol": 5656,
  "Ġcustody": 9757,
  "VR": 14873,
  "Ġempathy": 18465,
  "Ġple": 2373,
  "Ġunanimous": 22379,
  "rem": 2639,
  "ĠParks": 18010,
  "ighters": 5524,
  "Ġconstant": 6989,
  "ĠCP": 17048,
  "Ġslated": 17062,
  "gian": 13055,
  "ĠChampions": 11369,
  "atus": 10224,
  "agger": 9929,
  "Ġrider": 18023,
  "Ġsell": 3460,
  "Ġfigures": 4834,
  "ixels": 17171,
  "ĠO": 423,
  "Ġdisease": 4567,
  "ĠMTV": 23008,
  "perties": 25853,
  "Pan": 21653,
  "Ġpioneer": 24076,
  "Ġweighs": 22319,
  "ĠKaw": 25448,
  "Ġourselves": 5946,
  "Ġsabotage": 27213,
  "ĠAboriginal": 24845,
  "ĠFortunately": 19395,
  "Ġgrinding": 29251,
  "ĠStay": 19200,
  "ung": 2108,
  "Ġproperly": 6885,
  "Ġerosion": 24532,
  "collar": 28551,
  "Ġnephew": 22942,
  "OUT": 19713,
  "Ġvisions": 24180,
  "LA": 7376,
  "ĠMini": 17784,
  "ition": 619,
  "ob": 621,
  "ĠEisen": 19767,
  "Ġsmash": 23135,
  "Ġhostages": 25960,
  "Ġremarkably": 17996,
  "Ġdam": 2183,
  "lead": 25328,
  "ĠWeather": 16494,
  "ĠLand": 7001,
  "Ġregards": 13554,
  "Ġatt": 724,
  "650": 23495,
  "Ġexperiment": 4605,
  "Ġlogic": 8469,
  "Ġbalancing": 20350,
  "mund": 15777,
  "occ": 13585,
  "ĠRest": 10656,
  "Ġinfuri": 29851,
  "ĠNarendra": 22149,
  "Ġmisunderstanding": 27025,
  "E": 37,
  "PRO": 29235,
  "lance": 18166,
  "ardo": 11179,
  "Ġsailed": 30313,
  "Ġblu": 18561,
  "ĠSunshine": 31858,
  "Ġmocked": 23440,
  "Ġcoping": 31913,
  "Ġunb": 18522,
  "Ġicon": 7176,
  "ailand": 13934,
  "ĠPel": 11944,
  "Ġcues": 23238,
  "tingham": 29740,
  "Ġlow": 1834,
  "ĠRivera": 24669,
  "ĠFull": 8156,
  "/-": 23980,
  "restrial": 19973,
  "ĠPictures": 15844,
  "Ġprotocol": 8628,
  "Ġfaith": 4450,
  "centric": 22970,
  "ĠCavs": 30680,
  "ĠNorfolk": 27592,
  "å®": 26067,
  "Ġtruths": 22583,
  "Death": 22011,
  "enc": 12891,
  "Ġcomposed": 12398,
  "arettes": 12696,
  "Case": 23466,
  "Ġabundant": 21820,
  "ĠML": 5895,
  "Ġassignments": 24966,
  "ĠHBO": 14790,
  "âĢĲ": 10135,
  "ĠRobert": 4658,
  "emade": 21554,
  "Ġhundred": 3221,
  "Ġessay": 12076,
  "Ġequations": 27028,
  "ĠTom": 3838,
  "Ġwhole": 2144,
  "iop": 13970,
  "Ġturbo": 27638,
  "ĠRidge": 19139,
  "ĠBureau": 9033,
  "Ġpet": 5024,
  "Ġferv": 24882,
  "Ġhigher": 2436,
  "Moreover": 20641,
  "Ġhorse": 8422,
  "Ġredd": 19761,
  "Lat": 27459,
  "Int": 9693,
  "Ġproactive": 27750,
  "Ġtide": 17528,
  "Ġrus": 7350,
  "Ġdoors": 7887,
  "Ġunins": 23808,
  "ĠLynn": 22042,
  "aro": 10569,
  "ĠMarketing": 22871,
  "Ġtabs": 23090,
  "ĠHolland": 13292,
  "Ġcities": 3930,
  "Ġsmall": 1338,
  "ario": 4480,
  "ecutive": 9034,
  "ĠHorse": 19993,
  "ingo": 28645,
  "Ġgolf": 11479,
  "Ġnowhere": 10730,
  "Friday": 19987,
  "lets": 5307,
  "Ġles": 8856,
  "Ġforth": 6754,
  "Er": 14997,
  "ĠLimited": 17667,
  "addock": 31818,
  "ged": 1895,
  "Ġraces": 8416,
  "Ġturns": 5095,
  "Ġchanting": 24993,
  "230": 25912,
  "Ġran": 4426,
  "Ġdispl": 8460,
  "dev": 11705,
  "ĠWaste": 29676,
  "Ġmisguided": 24070,
  "AST": 15297,
  "ĠCompl": 24389,
  "opathy": 28423,
  "Ġdamage": 3298,
  "Ġcoalition": 7238,
  "Ġobsolete": 24062,
  "changing": 19774,
  "ku": 25613,
  "hy": 5619,
  "funding": 20091,
  "arks": 5120,
  "Ġaudition": 25068,
  "Ġhurd": 16880,
  "ĠPv": 21209,
  "Ġthreatened": 7134,
  "Ġcoloss": 29589,
  "les": 783,
  "ĠKR": 29770,
  "Ġcraft": 5831,
  "1997": 26341,
  "Ġparties": 4100,
  "Ġmediocre": 25678,
  "Ġdocumenting": 27464,
  "then": 8016,
  "Ġexempt": 19671,
  "ĠMel": 5430,
  "ĠKrug": 30376,
  "Ġcounters": 23131,
  "Ġapproaches": 10142,
  "Ġarsenal": 20360,
  "play": 1955,
  "playing": 16364,
  "ĠRams": 13653,
  "Ġcomet": 26547,
  "erting": 15560,
  "chens": 24045,
  "Ġencrypted": 18095,
  "Ġhashtag": 19390,
  "Ġpreserved": 16519,
  "ĠPilot": 29237,
  "Ġsyll": 27156,
  "Ġmal": 5745,
  "ade": 632,
  "mega": 19125,
  "email": 15061,
  "borhood": 29310,
  "Ġdetails": 3280,
  "ĠHicks": 26075,
  "ibrary": 4629,
  "Ġnotifications": 19267,
  "ision": 1072,
  "Is": 3671,
  "Ġswords": 25818,
  "Ġrepay": 19652,
  "Ġquietly": 11781,
  "lickr": 15008,
  "ĠFriends": 13574,
  "ĠTherefore": 10129,
  "Sim": 9368,
  "ĠFer": 6079,
  "hern": 2586,
  "ĠOptim": 29952,
  "Ġref": 983,
  "quirer": 31084,
  "ctions": 2794,
  "Ġfeminist": 12318,
  "ourney": 5956,
  "Ġlittle": 1273,
  "Ġtentative": 31170,
  "ablishment": 22098,
  "Ġpreviously": 3797,
  "ita": 5701,
  "Ġhurricanes": 31640,
  "Ġexpecting": 10980,
  "desc": 16337,
  "Ġloser": 26561,
  "Ġdysfunctional": 30396,
  "angle": 9871,
  "Ġdiameter": 17867,
  "emetery": 17111,
  "Ġedited": 13257,
  "ĠTheft": 31469,
  "Ġencounters": 16618,
  "Ġsexism": 21306,
  "Ġpredictable": 16802,
  "Ġdisappear": 10657,
  "Age": 26506,
  "ĠProdu": 20942,
  "Ġost": 15826,
  "Ġradical": 6114,
  "Ġpermanently": 14478,
  "ushes": 25755,
  "Employ": 30589,
  "citation": 11240,
  "Ġpermitting": 27368,
  "Ġexaggerated": 22397,
  "olitics": 17681,
  "abs": 7797,
  "Ġmixture": 12841,
  "ĠLiu": 21724,
  "Ġprisons": 15735,
  "irling": 23083,
  "Ġfundamental": 6519,
  "stones": 28491,
  "ĠAdded": 16973,
  "covery": 16016,
  "ãĤĴ": 21709,
  "Ġqual": 4097,
  "Ġstride": 29147,
  "Ġparas": 17519,
  "ĠClinton": 2068,
  "ĠMonster": 17049,
  "Ġcareers": 13207,
  "ĠHiro": 24080,
  "Ġsimultaneously": 10857,
  "Ġconve": 23818,
  "Ġargues": 9291,
  "ĠBarrett": 21845,
  "ĠSeveral": 11285,
  "Ġbun": 22000,
  "Ø§": 10113,
  "Â¢": 26053,
  "ĠWriter": 24747,
  "Ġreigning": 30244,
  "Ġpresentations": 25054,
  "Ġeliminates": 31189,
  "!!!!": 19432,
  "ĠSCP": 18811,
  "lab": 25117,
  "small": 21727,
  "ĠEP": 16824,
  "Ġunreal": 20197,
  "Ġforged": 22615,
  "Ġparamount": 31906,
  "Ġreson": 12948,
  "Ġdeserve": 9490,
  "Ġshoulder": 8719,
  "ourse": 8580,
  "Ġteenage": 13971,
  "Ġlower": 2902,
  "Ġexpectations": 7699,
  "redients": 26892,
  "Ġof": 244,
  "Ġrefers": 10434,
  "Ġpl": 413,
  "Ġnegotiating": 14847,
  "Ġdemon": 14079,
  "Given": 12302,
  "isans": 21247,
  "Ġdestructive": 16211,
  "Ġunusual": 7618,
  "ignty": 14148,
  "happy": 31736,
  "Ġcondol": 28563,
  "Ġentirely": 4564,
  "IVE": 12992,
  "ĠAviv": 22273,
  "seud": 12800,
  "Ġtune": 12431,
  "ĠUSDA": 26203,
  "Ġstaggering": 18058,
  "Ġmeantime": 12983,
  "Ġamong": 1703,
  "ĠHoover": 25733,
  "ĠGU": 27016,
  "Ġsmiling": 17138,
  "Ġmineral": 20173,
  "ĠLindsay": 28505,
  "Ġ1987": 12340,
  "itable": 4702,
  "Ġdiscussed": 6217,
  "ĠHeroes": 18625,
  "ĠAud": 8924,
  "ĠTH": 3308,
  "ylum": 9831,
  "Ġsubsid": 6700,
  "elines": 17905,
  "gotten": 28317,
  "Ġhomophobic": 27928,
  "Ġrecipes": 15454,
  "ĠSant": 5463,
  "Ġeasing": 25830,
  "Ġladder": 17604,
  "ĠED": 12253,
  "Ġwool": 30152,
  "Ġprogramming": 7344,
  "Ġanalyze": 15458,
  "Ġdestined": 21579,
  "Ġline": 1529,
  "ĠFletcher": 27344,
  "/.": 11922,
  "Ġskeleton": 22961,
  "bers": 1116,
  "Ġscholarship": 16721,
  "Ġsummon": 15623,
  "puter": 11654,
  "Ġimpression": 9862,
  "January": 21314,
  "Ġcase": 1286,
  "elsius": 28394,
  "ĠZimbabwe": 20899,
  "ĠII": 3514,
  "ĠBoris": 22094,
  "Ġ230": 23141,
  "Ġjava": 31230,
  "ĠRainbow": 24662,
  "Ġmin": 915,
  "Ġdisaster": 7564,
  "Ġretweet": 31194,
  "Ġthinking": 3328,
  "lant": 4391,
  "Ġestablishments": 29970,
  "ĠSuch": 8550,
  "ĠBarr": 25246,
  "Ġconsiderable": 10627,
  "igan": 4835,
  "ologist": 6436,
  "Ġinvoked": 23754,
  "Ġelementary": 17678,
  "Ġunequ": 18896,
  "eria": 9721,
  "Ġshifting": 13606,
  "Ġorbiting": 30857,
  "Ġattributes": 14188,
  "ĠBronx": 24875,
  "ĠDate": 12284,
  "Ł": 210,
  "Ġstap": 17332,
  "ĠChip": 16233,
  "Ġtired": 9783,
  "ĠMorrison": 19519,
  "Ġtele": 5473,
  "iances": 15294,
  "Ġresulting": 7183,
  "Ġbarred": 19689,
  "Ġcountry": 1244,
  "Ġascertain": 30945,
  "Ġgrand": 4013,
  "slist": 31698,
  "Ġinjection": 16110,
  "Ġaddressed": 8650,
  "lied": 11527,
  "Ġunderstanding": 4320,
  "Ġfocusing": 9242,
  "ĠLinux": 7487,
  "Ġweighted": 27511,
  "ĠNatalie": 31350,
  "ĠClient": 30119,
  "ĠLaur": 12036,
  "Ġdome": 29309,
  "Ġpopped": 20753,
  "guyen": 31453,
  "og": 482,
  "ĠChampion": 17587,
  "Ġledger": 31147,
  "ĠRica": 27904,
  "ocide": 14427,
  "UD": 12143,
  "ĠFY": 27729,
  "comb": 21875,
  "Brit": 13818,
  "Ġdecisions": 4664,
  "Ġriff": 30467,
  "brow": 30908,
  "Anthony": 26823,
  "Ġdeer": 19757,
  "ela": 9103,
  "Ġtransit": 9123,
  "),âĢĿ": 30380,
  "ĠGPS": 14250,
  "Ġwar": 1090,
  "solete": 22557,
  "Ġem": 745,
  "Muslims": 30068,
  "ÂĹ": 22943,
  "ĠFat": 14099,
  "emale": 15717,
  "Ġaccustomed": 22141,
  "Ġregardless": 7541,
  "ĠAbe": 20937,
  "CS": 7098,
  "Ġbanner": 15406,
  "Ġvil": 30518,
  "ĠBelfast": 22845,
  "ĠBuild": 14213,
  "ĠRober": 3621,
  "Ġfle": 4939,
  "Ġinert": 29000,
  "Ġ800": 10707,
  "ĠAndy": 10701,
  "isan": 7225,
  "church": 29672,
  "Ġbarrels": 15049,
  "hedral": 19188,
  "Further": 11295,
  "bey": 21915,
  "Ġthereafter": 20017,
  "ants": 1168,
  "cre": 10227,
  "Ġme": 466,
  "Ġorgas": 29284,
  "uce": 7916,
  "ĠUpdate": 14180,
  "Ġtransitioning": 30885,
  "Ġeditors": 12783,
  "Ġbottles": 13035,
  "Ġis": 277,
  "Ġstood": 6187,
  "ĠCage": 25181,
  "Ph": 2545,
  "LO": 13234,
  "handed": 12159,
  "ĠKaepernick": 23968,
  "ĠTHIS": 17346,
  "Ġdisposable": 28300,
  "Ġwrapping": 26140,
  "Ġstamps": 21003,
  "maid": 23520,
  "forms": 27619,
  "Ġexpress": 2522,
  "ltry": 29330,
  "Ġfug": 28408,
  "ĠFah": 24247,
  "Ġsymp": 8952,
  "reating": 18145,
  "Ġ...": 3162,
  "ĠAdams": 10713,
  "Ġneighb": 7895,
  "Ġsleeve": 25977,
  "Ġtempted": 24377,
  "birth": 25975,
  "ĠKin": 20954,
  "cp": 23584,
  "Article": 14239,
  "Ġvalidation": 21651,
  "ĠZur": 30784,
  "ĠK": 483,
  "Ġyelled": 21358,
  "Ġcomparisons": 17239,
  "urd": 2501,
  "Ġescalation": 24024,
  "include": 27044,
  "udd": 4182,
  "ĠDue": 15337,
  "ĠBelg": 9442,
  "Ġfix": 3340,
  "Ġasserting": 27205,
  "xc": 30269,
  "Ġadministrative": 11547,
  "Ġgimm": 27644,
  "Ġafraid": 7573,
  "Ġvide": 1514,
  "Ġbackers": 15477,
  "Ġteachings": 19405,
  "ĠHowever": 2170,
  ".'âĢĿ": 30307,
  "Ġescaped": 13805,
  "Ġguise": 29295,
  "Ġclubs": 7818,
  "OSS": 22802,
  "Ġurban": 6654,
  "Ġsilicon": 23966,
  "Comments": 24333,
  "Ġmolecular": 18693,
  "ON": 2036,
  "Ġindefinitely": 21500,
  "Att": 12587,
  "ĠBiden": 15366,
  "Ġd": 246,
  "Ġhumor": 12929,
  "Ġatroc": 19082,
  "Ġevac": 10934,
  "Ġcostly": 14025,
  "oke": 2401,
  "Ġhumili": 19393,
  "ĠPlatinum": 31935,
  "ĠÂ·": 21257,
  "Ġconsequence": 12597,
  "ĠMiles": 20259,
  "Ġunchanged": 20113,
  "Ġtiles": 22100,
  "ĠVilla": 18064,
  "ious": 649,
  "ĠMartin": 4951,
  "================================": 25306,
  "ĠKeen": 27753,
  "Ġtalked": 5631,
  "ĠBeacon": 27599,
  "anni": 27395,
  "Ġdestroying": 13174,
  "fulness": 15553,
  "Ġ1931": 30806,
  "Ġdefects": 23864,
  "ĠAsk": 18106,
  "Ġturnover": 21284,
  "Ġharms": 30006,
  "Ġsticky": 25417,
  "ĠDragons": 23132,
  "ĠMueller": 14406,
  "ĠAshe": 30342,
  "Semitic": 22773,
  "Ġinternational": 2648,
  "outed": 15071,
  "Ġroy": 9876,
  "ĠSel": 14302,
  "Ġstellar": 20381,
  "Ġbear": 7017,
  "Tre": 25572,
  "ĠNorthern": 7681,
  "Ġdistances": 18511,
  "Ġcarries": 10136,
  "Ġinteractions": 11508,
  "ĠST": 5256,
  "Ġmunicipalities": 23460,
  "Ġcareg": 29428,
  "Ġdeclarations": 31784,
  "Contact": 17831,
  "Ġyoga": 17806,
  "bottom": 26949,
  "Ð¾": 4105,
  "Ġchose": 6878,
  "under": 5262,
  "Ġgoats": 31796,
  "ĠBattalion": 29834,
  "orn": 1221,
  "Ġpartnering": 31979,
  "Ġeuro": 8061,
  "ĠLevel": 11814,
  "ppery": 26628,
  "Ġstronger": 7073,
  "Ġrewrite": 24195,
  "Ġattends": 30157,
  "Ġ\"[": 19524,
  "Ġclay": 23155,
  "Ġcontacting": 29180,
  "Ġspirit": 4863,
  "Ġcrushing": 21726,
  "Ġmall": 15050,
  "Ġhopes": 5634,
  "ĠSpot": 15174,
  "Ġswallowed": 30876,
  "Ġreveal": 2894,
  "Ġbuddy": 22884,
  "ĠPennsylvania": 8255,
  "rong": 14568,
  "uration": 5304,
  "secutor": 27576,
  "Ġfiction": 8337,
  "assing": 22877,
  "Ġprofile": 7246,
  "Ġwhatever": 4120,
  "SF": 20763,
  "ĠBay": 3994,
  "etro": 3684,
  "Ġgray": 14008,
  "ĠNeo": 22833,
  "nown": 3786,
  "ierre": 11985,
  "Ġ1958": 21513,
  "ĠStorm": 11975,
  "ĠNum": 18769,
  "ĠBenn": 12060,
  "Ġartific": 9102,
  "ĠRick": 7677,
  "aconian": 31181,
  "ULT": 29253,
  "icken": 7064,
  "Ġsw": 1983,
  "Ġjudging": 20994,
  "ĠRaptors": 25916,
  "Ġpoles": 24539,
  "Ġjumping": 13488,
  "Ġtribute": 14431,
  "Ġsmashing": 31396,
  "ĠCome": 7621,
  "iliation": 13947,
  "Ġadministrations": 26573,
  "Ġrealizing": 18293,
  "ĠSpart": 20232,
  "Ġinflated": 26943,
  "ĠShin": 16231,
  "ĠArts": 11950,
  "28": 3746,
  "Ġmedicine": 8523,
  "Ġtickets": 8104,
  "Ġprostitutes": 27934,
  "Ġbrowser": 7749,
  "isdom": 10198,
  "Ġson": 3135,
  "Ġmilitia": 17736,
  "Ġneatly": 26962,
  "Ġoath": 18055,
  "ĠHard": 8139,
  "Ġr": 322,
  "ishi": 24166,
  "ĠHem": 14151,
  "hydro": 29832,
  "ready": 1339,
  "Ġfrightening": 20092,
  "balls": 17889,
  "runner": 14495,
  "Ġharmon": 25083,
  "Ġarbitration": 24197,
  "Ġmanip": 7329,
  "Ġsomehow": 6977,
  "Ġsenior": 3716,
  "Ġimpl": 4029,
  "Hillary": 16094,
  "Ġtet": 26258,
  "Ġsingle": 1976,
  "Ġbreaks": 8836,
  "BA": 4207,
  "Ġrib": 13348,
  "Ġextraction": 21296,
  "Ġoverse": 7530,
  "wide": 3881,
  "ĠRuss": 1578,
  "ĠProduction": 20533,
  "Ġjihadist": 24306,
  "Ġfee": 7816,
  "Ġloads": 16516,
  "ĠBee": 23522,
  "lers": 7360,
  "Ġrush": 9250,
  "ĠGamb": 30596,
  "Ġwhipped": 30034,
  "It": 893,
  "Ġbeaut": 3775,
  "UTERS": 12481,
  "Topics": 21498,
  "ĠFiles": 27114,
  "Ġachieve": 4318,
  "ĠDart": 26914,
  "Ġchannels": 9189,
  "ĠEvent": 10201,
  "Arab": 26252,
  "ĠParent": 31089,
  "iver": 1689,
  "ernick": 21795,
  "Ġsubsidiary": 20626,
  "Ġbeliefs": 7932,
  "Qu": 6142,
  "Program": 31400,
  "cell": 4192,
  "State": 10145,
  "ĠMarx": 9823,
  "ĠTao": 29456,
  "online": 28859,
  "cats": 23233,
  "make": 18262,
  "ertainly": 16245,
  "culation": 15680,
  "Ġsurely": 9357,
  "Ġmembrane": 26907,
  "Ġfaults": 29466,
  "Ġgraveyard": 31743,
  "Ġblocked": 9071,
  "Ġdependencies": 20806,
  "Ġ1990": 5528,
  "Ġsignings": 29761,
  "cery": 31549,
  "rimination": 6997,
  "ĠGenesis": 21521,
  "ĠSHA": 19289,
  "Rom": 21545,
  "Ġdrone": 9686,
  "Furthermore": 21491,
  "Ġcarrying": 6515,
  "Ġprohib": 6324,
  "ĠRP": 30246,
  "2001": 20449,
  "Ġback": 683,
  "ĠCa": 12438,
  "Ġke": 855,
  "5": 21,
  "ĠHirosh": 30884,
  "Ġwo": 26663,
  "Ġtables": 9755,
  "Ġslogans": 23978,
  "Ġbombed": 26474,
  "Bon": 23889,
  "Ġratified": 31303,
  "Ġprovocative": 23019,
  "ĠNicholas": 17971,
  "ĠMus": 2365,
  "rah": 11034,
  "Ġsrc": 20780,
  "Does": 14265,
  "ĠStevens": 16557,
  "cha": 13280,
  "bor": 2664,
  "jah": 21508,
  "Ġinvitation": 15870,
  "Ġcharged": 4497,
  "Ġtones": 24470,
  "Ġinviting": 20287,
  "color": 15182,
  "rant": 5851,
  "ĠLebanon": 13624,
  "Ġdiscovers": 27399,
  "Ġoccupy": 19766,
  "ĠWesley": 26977,
  "Ġexceed": 8126,
  "Ġdismal": 30832,
  "Ü": 151,
  "Ġoverall": 3687,
  "opening": 31778,
  "ĠShuttle": 30400,
  "fing": 31329,
  "Ġsusp": 3697,
  "Ġpair": 5061,
  "ĠUrugu": 26558,
  "Ġdelaying": 28746,
  "agle": 18615,
  "Ġaccuses": 28131,
  "»": 120,
  "Ġtravels": 16630,
  "ĠSuarez": 29928,
  "liners": 26199,
  "Ġethics": 12014,
  "Ġdepth": 6615,
  "Ġforum": 10431,
  "Ġolig": 21022,
  "elled": 17829,
  "Ġremarkable": 9594,
  "Ġsubsequent": 8733,
  "aye": 29866,
  "Hopefully": 25627,
  "Ġimplement": 3351,
  "Sub": 7905,
  "Ġinnings": 12748,
  "Ġevacuated": 21141,
  "ĠContest": 30178,
  "ĠWinter": 11395,
  "ĠCover": 20417,
  "Ġvinegar": 30325,
  "achine": 23760,
  "Ġplus": 5534,
  "luding": 6662,
  "ĠSaud": 5508,
  "och": 5164,
  "Ġcute": 14941,
  "ottesville": 20727,
  "otics": 18112,
  "Ġdepending": 7497,
  "62": 8947,
  "Sources": 18568,
  "Ġtie": 9018,
  "liament": 4130,
  "acker": 13620,
  "Ġcents": 13528,
  "ĠBom": 22697,
  "Ġanecd": 19024,
  "Ġdepicts": 24636,
  "ikes": 8141,
  "Ġprud": 24726,
  "Ġprem": 3883,
  "ĠRd": 24920,
  "arth": 3038,
  "ĠDiam": 14086,
  "Mean": 7658,
  "pectives": 17543,
  "ĠJust": 2274,
  "iness": 1173,
  "Ġgears": 28738,
  "Ġconcern": 4675,
  "ĠHuss": 29074,
  "Ġvag": 16590,
  "ĠCopenhagen": 23472,
  "Ġclin": 5360,
  "Ġinflux": 19720,
  "Ġopinion": 4283,
  "Ġpopulation": 2959,
  "Ġeleph": 13291,
  "ĠRutgers": 24115,
  "ĠWings": 17395,
  "Ġsq": 24725,
  "iani": 19472,
  "ĠSha": 19273,
  "ĠHungarian": 22390,
  "Ins": 18732,
  "Ġimprove": 2848,
  "igration": 3639,
  "Ġfixtures": 29659,
  "ardon": 19615,
  "Ġsacked": 23633,
  "Ġpaved": 26888,
  "ĠBMW": 17114,
  "Ġseism": 25636,
  "Ġfamilies": 3678,
  "azers": 25454,
  "Ġwrongdoing": 19559,
  "ĠElectric": 14778,
  "Ġbias": 9588,
  "Ġshelves": 18024,
  "Comb": 24869,
  "f": 70,
  "Ġanonymously": 29015,
  "Ġinvari": 25841,
  "xd": 27496,
  "Ġmore": 460,
  "Ġunsuccessful": 19411,
  "imer": 18771,
  "Ġaloud": 31627,
  "Ġbones": 12553,
  "Ġhomage": 26202,
  "ortheast": 13338,
  "ĠGraph": 17358,
  "ANN": 23983,
  "ĠPerl": 19908,
  "Ġdepos": 12090,
  "pa": 9216,
  "ĠBeginning": 29854,
  "terrorist": 31240,
  "aps": 1542,
  "Ġcontinuous": 13279,
  "ĠInternet": 3868,
  "mg": 19392,
  "nie": 10965,
  "Ð¸ÑĤ": 29331,
  "ochond": 23378,
  "ĠLyft": 29853,
  "Ġremarks": 8377,
  "ĠKenn": 16938,
  "ember": 2549,
  "Ġ00": 8025,
  "Ġawareness": 8372,
  "umbled": 12472,
  "ĠStefan": 25226,
  "ĠRoger": 11987,
  "mentioned": 15949,
  "aking": 788,
  "ĠMelania": 31967,
  "Ġonstage": 30710,
  "note": 12860,
  "Hop": 19629,
  "ĠCath": 5327,
  "Ġaboard": 14696,
  "pur": 13490,
  "Ġantenna": 22535,
  "Ġknow": 725,
  "Ġfounder": 7242,
  "Ġatom": 23146,
  "_": 63,
  "Ġreality": 3400,
  "llers": 12663,
  "ĠAppeal": 30054,
  "Park": 24537,
  "Ġcontrolling": 12362,
  "Ġposture": 23292,
  "Ġliar": 28418,
  "ĠBreak": 15328,
  "Ġapart": 5188,
  "Ġtemporary": 8381,
  "Ġregul": 3147,
  "ĠHopkins": 17983,
  "ĠGive": 15830,
  "Ġax": 8955,
  "Ġsuc": 6076,
  "Ġfunnel": 24454,
  "Ġmotivated": 10983,
  "Ġpattern": 4156,
  "Ġknowing": 6692,
  "Ġparanoia": 28654,
  "Ġvou": 22677,
  "Ġpublish": 10900,
  "ĠCambodia": 26127,
  "ornia": 2863,
  "Ġ04": 17085,
  "Ġarts": 10071,
  "Britain": 28167,
  "ĠColor": 5512,
  "Ġovernight": 11663,
  "Ġinteresting": 3170,
  "Ġborrowing": 18843,
  "illa": 5085,
  "sal": 24767,
  "Ġtwentieth": 25892,
  "Hundreds": 28358,
  "Ġsizes": 11995,
  "Ġunit": 4688,
  "Ġprogrammer": 20580,
  "ojure": 27912,
  "ĠElliot": 27709,
  "Ġhospital": 3991,
  "Ġinspired": 6658,
  "ĠCIA": 6576,
  "ĠFlynn": 12145,
  "Ġa": 214,
  "Ġpermission": 7746,
  "10": 1285,
  "Ġharmful": 12722,
  "Ġsubjects": 8251,
  "ides": 1466,
  "Ġsexuality": 14651,
  "Ġmotions": 25060,
  "ĠACA": 23439,
  "ulin": 15520,
  "ager": 2375,
  "ĠGuard": 5404,
  "Ġ365": 26304,
  "Ġdeadliest": 31553,
  "Ġfall": 2005,
  "ĠSto": 19862,
  "writer": 13339,
  "ĠTrafford": 30251,
  "tsburgh": 10091,
  "ĠClimate": 11582,
  "Ġfled": 9942,
  "Ġnationality": 27989,
  "ĠBrock": 19465,
  "walks": 24835,
  "Ġpublishes": 30067,
  "Ġallows": 3689,
  "Ġaside": 6757,
  "Ġpitched": 17287,
  "Ġpops": 25728,
  "Ġtaught": 7480,
  "Ġdich": 31820,
  "Ġcommander": 10046,
  "Ġseriousness": 27491,
  "Ġda": 10767,
  "Ġaug": 16518,
  "ĠKra": 25288,
  "Market": 31361,
  "ĠWind": 3656,
  "Ġcharter": 15163,
  "åı": 24585,
  "Ġepic": 10790,
  "riv": 10830,
  "Ġ05": 17398,
  "Ġinadvert": 22746,
  "why": 22261,
  "Ġreligions": 16511,
  "Ten": 23006,
  "ampire": 18092,
  "Ġdeli": 2820,
  "Ġchoose": 4094,
  "Ġlibertarian": 14887,
  "Ġhay": 25604,
  "Ġded": 4558,
  "Sorry": 21766,
  "Ġsupernatural": 21599,
  "Ġbreath": 9152,
  "lantic": 21485,
  "ogens": 25566,
  "Ġcustomers": 3750,
  "Ġbir": 27837,
  "owns": 20873,
  "ĠJoe": 5003,
  "Ġcaste": 26394,
  "Ġfreeze": 15914,
  "ĠComplete": 18552,
  "Ġbeta": 11373,
  "Ġlocation": 4390,
  "Ġbacteria": 10880,
  "ĠLaunch": 21411,
  "llah": 17945,
  "mittee": 3968,
  "ĠFX": 21831,
  "arthy": 13504,
  "mont": 7382,
  "Ġaccidents": 16252,
  "Ġmosquitoes": 29979,
  "Ġetern": 25216,
  "ĠBasin": 28486,
  "ĠSame": 20095,
  "Ġjoins": 16182,
  "Ġcomr": 21565,
  "Ġjealous": 20687,
  "Ġapplications": 5208,
  "Ġchase": 14443,
  "md": 25452,
  "ĠDoes": 8946,
  "ment": 336,
  "Ġclaimed": 3916,
  "003": 22284,
  "ĠSalvador": 21465,
  "Ġmorp": 31280,
  "ĠR": 346,
  "Ġdiverted": 29728,
  "ĠVel": 19002,
  "Ġslic": 14956,
  "Ġfriendly": 8160,
  "Ġplant": 3995,
  "Ġvaguely": 27403,
  "ĠNicarag": 30610,
  "Ġagents": 5899,
  "1993": 28704,
  "Ġfollowing": 1833,
  "Ġemphasizing": 29603,
  "IM": 5142,
  "course": 19856,
  "==": 2482,
  "b": 66,
  "irteen": 21680,
  "Ġ''": 13380,
  "Ġhorsepower": 30955,
  "Ġbreakdown": 13040,
  "oper": 3360,
  "Ġlocked": 8807,
  "min": 1071,
  "ĠGaz": 17979,
  "Ġinstitutional": 13329,
  "ubl": 1704,
  "upp": 4321,
  "*": 10,
  "civil": 31885,
  "Ġentity": 11421,
  "Ġfoundation": 7827,
  "Ġmanufacturer": 12447,
  "he": 215,
  "Ġtaxp": 7631,
  "Ġarche": 20111,
  "Ġbook": 1388,
  "Ġintercept": 13937,
  "Ġphysicists": 28950,
  "Ġdiabetes": 13803,
  "ĠStrategic": 23078,
  "ĠSanta": 8363,
  "Ġhaun": 16690,
  "Ġcutting": 7071,
  "Stay": 24341,
  "Ġreimburse": 27359,
  "Ġcollusion": 23035,
  "ELL": 16479,
  "imore": 7959,
  "ĠIndian": 3445,
  "senal": 8711,
  "SQL": 18759,
  "Ġkills": 13619,
  "Ġbesides": 14154,
  "Ġsymb": 5245,
  "Great": 15246,
  "Ġunderwent": 21379,
  "par": 1998,
  "enfranch": 30228,
  "Ġsorts": 9374,
  "Ġperhaps": 3373,
  "isk": 9420,
  "Ġmakeup": 16056,
  "BS": 4387,
  "Ġpositioned": 17531,
  "Girl": 28489,
  "Ġener": 2206,
  "ĠDel": 4270,
  "Ġfost": 20367,
  "Ġhonored": 17786,
  "Ġminorities": 12769,
  "ĠWikileaks": 24393,
  "Ġmarched": 19543,
  "âĢĵ": 1709,
  "Ġinterventions": 18879,
  "Ġaffecting": 13790,
  "Things": 19422,
  "Ġmonit": 7465,
  "Ġslave": 13072,
  "ĠInnov": 19248,
  "Ġchild": 1166,
  "vard": 8599,
  "kn": 15771,
  "ysical": 17059,
  "ĠSaw": 20647,
  "draw": 25726,
  "rov": 17301,
  "Ġ4": 698,
  "raq": 3066,
  "Ġnoisy": 29613,
  "ĠStro": 30716,
  "Ġeducating": 29836,
  "ĠShir": 23425,
  "Ġdemographic": 14325,
  "ĠAccept": 30243,
  "Ġspeech": 3403,
  "ĠScience": 5922,
  "ĠIt": 592,
  "Ġgoodness": 20561,
  "ĠPER": 29037,
  "next": 24704,
  "Ġmodes": 14191,
  "Ġfiltering": 24596,
  "Ġretain": 7108,
  "keep": 8687,
  "Ġsne": 10501,
  "Ġtelevised": 21887,
  "incial": 11476,
  "ected": 15996,
  "estival": 5769,
  "Ġearliest": 12789,
  "Ġalways": 1379,
  "Ġcompens": 7346,
  "ĠCreation": 27640,
  "Ġdistributor": 29304,
  "ongo": 22604,
  "igers": 12865,
  "ĠEgg": 20764,
  "Ref": 8163,
  "ĠInvalid": 14689,
  "otional": 26070,
  "Ġstating": 10633,
  "Ġstrangers": 17176,
  "EU": 16921,
  "Ġstay": 2466,
  "ĠScalia": 25071,
  "Local": 18489,
  "Ġrept": 28989,
  "Thank": 10688,
  "Ġinfluenced": 11004,
  "Ġhole": 7848,
  "Ġbee": 19315,
  "Pot": 26521,
  "Ġlegends": 23746,
  "such": 11218,
  "lder": 7179,
  "ktop": 23139,
  "ĠFleming": 31656,
  "cm": 15158,
  "nery": 30504,
  "Ġvalues": 4065,
  "ĠVC": 24354,
  "Ġinc": 522,
  "Ġloses": 14485,
  "ĠÐ½Ð°": 24432,
  "ĠHuffington": 18017,
  "Cover": 28170,
  "Ġsubscriptions": 31803,
  "asha": 17705,
  "Ġthro": 11893,
  "ri": 337,
  "Ġhoped": 8969,
  "Ġneuro": 7661,
  "53": 7995,
  "Ġconnections": 8207,
  "ables": 3342,
  "ĠID": 6057,
  "ĠConsidering": 25186,
  "Ġreperc": 26353,
  "Captain": 28128,
  "Ġparish": 25393,
  "ĠâĢĵ": 689,
  "Ġwithheld": 28840,
  "Ġparticular": 2951,
  "ĠDawson": 27787,
  "ANCE": 29701,
  "Ġumbrella": 21908,
  "cert": 31027,
  "Ġabuses": 15958,
  "Ġhallway": 24711,
  "Ġdepressed": 18016,
  "Ġarg": 1668,
  "Ġharbour": 31787,
  ".),": 11998,
  "Ġemployer": 11812,
  "ĠWorld": 2065,
  "Ġdirective": 20588,
  "ĠLetters": 27098,
  "Ġvill": 4213,
  "Ġbaked": 23070,
  "Ġsausage": 30887,
  "Ġfarmer": 16444,
  "text": 630,
  "call": 16083,
  "Ġerected": 25043,
  "ometric": 21587,
  "ctic": 9001,
  "ĠCommun": 4431,
  "ĠTampa": 12443,
  "Ġmanipulated": 22014,
  "Ġgem": 18083,
  "-": 13,
  "bird": 19106,
  "ĠHab": 19569,
  "Model": 24811,
  "Ġresonance": 28355,
  "Official": 30531,
  "See": 6333,
  "Ġhabitats": 29326,
  "Ġtit": 2425,
  "Ġretrieve": 21137,
  "Ġattractions": 25023,
  "Ġ80": 4271,
  "Ġproudly": 20294,
  "Ġpassion": 6771,
  "OH": 16778,
  "market": 9802,
  "ĠChrist": 1802,
  "Ġopposes": 22159,
  "Ġbio": 15223,
  "NA": 4536,
  "Ġexplanations": 17549,
  "od": 357,
  "Ġlaboratory": 13998,
  "}}": 9973,
  "Ġkin": 21216,
  "ĠSources": 27102,
  "ĠMong": 16319,
  "ĠWilliam": 5783,
  "Ġuranium": 17375,
  "Ġhomers": 30236,
  "developed": 28406,
  "cience": 4237,
  "ĠRig": 27869,
  "Ġcarrier": 11767,
  "ĠKnicks": 19686,
  "casting": 20001,
  "SEC": 29844,
  "ocalypse": 19421,
  "ĠPhiladelphia": 7697,
  "ooter": 22995,
  "Ġpipelines": 24509,
  "Ġnotch": 29347,
  "Ġthis": 389,
  "iaz": 16359,
  "OT": 3512,
  "ĠInd": 1288,
  "ĠÑĤ": 26681,
  "Ġpackages": 10813,
  "ervative": 17556,
  "ĠPlaza": 20616,
  "Ġideologies": 28985,
  "Brazil": 31343,
  "Ġmeasurement": 16774,
  "ose": 528,
  "placement": 19989,
  "ĠRemote": 29576,
  "¼": 121,
  "eta": 16259,
  "Ġrobotics": 26956,
  "Ġcircum": 4919,
  "ĠAfrica": 4696,
  "Ġalgorith": 7752,
  "ĠChester": 25940,
  "abel": 14331,
  "SM": 13637,
  "Ġcorner": 4947,
  "esty": 8905,
  "Ġurgency": 20518,
  "Ġindec": 26337,
  "ĠBeatles": 20845,
  "ucky": 4936,
  "ĠSugar": 22122,
  "itiz": 2612,
  "Ġdose": 12732,
  "Ġpursue": 9165,
  "Ġpr": 666,
  "politics": 28855,
  "Ġprol": 12035,
  "Ġbishop": 25030,
  "ville": 3902,
  "ĠâĶ": 21130,
  "Ġpuzzles": 22974,
  "Ġelastic": 30187,
  "Ġstabilize": 28278,
  "ĠHawaii": 12031,
  "Ġfried": 22383,
  "Ġdug": 17058,
  "Ġlame": 27038,
  "hes": 974,
  "ixty": 19983,
  "ounds": 3820,
  "fell": 23400,
  "Ġcriteria": 10956,
  "Ġsizable": 27461,
  "ĠCapitals": 31582,
  "hetti": 31621,
  "Ġraise": 4662,
  "Ġvetting": 31111,
  "Ġproposals": 9021,
  "Ġhaz": 12080,
  "ĠSamsung": 8806,
  "Ġ1985": 12413,
  "Ġappe": 26090,
  "percent": 24458,
  "Ġjudgment": 9617,
  "Ġterrible": 7318,
  "Ġmine": 6500,
  "Ġdownward": 19497,
  "Ġintact": 15710,
  "Ġsail": 13786,
  "Ġapps": 5641,
  "vana": 31943,
  "ctica": 23370,
  "aken": 1617,
  "ĠOnly": 6216,
  "à¥": 22306,
  "ĠAttack": 14953,
  "local": 16189,
  "kick": 23435,
  "Ġcloses": 22488,
  "ĠNone": 10807,
  "Mer": 14554,
  "stop": 10607,
  "sn": 17031,
  "Ġcigarettes": 16402,
  "Ġknight": 30141,
  "ores": 5097,
  "Ġensemble": 28699,
  "Ġunw": 7778,
  "YouTube": 29824,
  "Ġroutinely": 13412,
  "obi": 15492,
  "ĠâĢľ": 409,
  "gments": 12086,
  "Ġsetup": 10026,
  "Kit": 20638,
  "Ġcontext": 4670,
  "ĠEmployment": 26717,
  "ĠGaw": 27039,
  "ĠCombine": 30494,
  "umbling": 13591,
  "RO": 11857,
  "Ġritual": 11758,
  "Ġplunged": 26885,
  "ĠPercent": 27495,
  "Ġshame": 9297,
  "Ġempowerment": 31921,
  "Ġinhibit": 28569,
  "Jo": 11257,
  "Ġopenness": 23796,
  "Ġdoctrine": 13973,
  "Ġshocking": 12194,
  "Ġand": 250,
  "ĠFil": 6828,
  "Ġ2019": 8455,
  "Ġpromoting": 9718,
  "Low": 24442,
  "ĠBen": 3647,
  "Ġstaffers": 17184,
  "Ġdesert": 11579,
  "ĠTown": 8256,
  "Ġterrestrial": 31075,
  "erala": 27349,
  "Ġengineering": 7614,
  "angu": 2293,
  "Ġconflicts": 11017,
  "ĠWeapon": 25847,
  "Ġamnesty": 24763,
  "Ġemotions": 10374,
  "################": 24507,
  "Ġscience": 3248,
  "Ġreactor": 17069,
  "fil": 13383,
  "JC": 31516,
  "Ġarresting": 27021,
  "ĠFior": 31727,
  "ALE": 27153,
  "Text": 17266,
  "ĠRef": 8177,
  "ĠWeekly": 16484,
  "Ġaccompanied": 11370,
  "Ġpas": 24133,
  "ental": 10133,
  "leader": 25276,
  "iola": 23602,
  "ĠAdd": 4288,
  "Care": 15035,
  "ishop": 9491,
  "Ġmassively": 22539,
  "Ġg": 266,
  "Ġ1996": 8357,
  "Ġresponds": 18888,
  "Ġmix": 3659,
  "Ġfrankly": 14757,
  "Ġseldom": 25010,
  "ĠDion": 25107,
  "Ġcalculated": 11506,
  "Ġgunfire": 23705,
  "aka": 8549,
  "Ġthinner": 29779,
  "ĠLA": 8906,
  "Dev": 19004,
  "ĠZach": 16426,
  "Ġsomewhere": 7012,
  "lando": 9835,
  "iv": 416,
  "Ġsmiled": 18630,
  "ua": 6601,
  "Ġtoday": 1622,
  "Ġhomosexuals": 29542,
  "Ġenlight": 18711,
  "ĠAlexandria": 26374,
  "Ġemer": 2748,
  "AC": 2997,
  "Ġprove": 5343,
  "ĠIraq": 3154,
  "usters": 12500,
  "ĠSQL": 17575,
  "Ġtot": 1986,
  "Ġcomput": 2532,
  "ĠSpiel": 25859,
  "ĠTV": 2813,
  "Ġaccelerated": 20730,
  "Ġthroat": 16060,
  "ĠInv": 14069,
  "Ġrejection": 15919,
  "total": 25807,
  "Ġstandard": 3383,
  "caster": 30431,
  "NP": 21999,
  "Additional": 20445,
  "Ġsnake": 18674,
  "we": 678,
  "Ġcaused": 3914,
  "Ġdrinks": 12003,
  "Ġhandle": 5533,
  "Ġexhausted": 18612,
  "Ġwound": 12028,
  "ankind": 29449,
  "nedy": 8244,
  "into": 19660,
  "Follow": 6039,
  "Ġinside": 2638,
  "ambers": 15728,
  "Ġbottled": 29767,
  "Ġentered": 6221,
  "Ġmisrepresent": 23753,
  "assed": 21903,
  "idate": 21472,
  "Ġcongest": 18643,
  "thanks": 30789,
  "ĠIreland": 6202,
  "Ġadv": 1186,
  "Ġgalaxies": 21692,
  "Ġaging": 13228,
  "Ġgrapp": 18847,
  "ĠVirginia": 5384,
  "Ġreflection": 13762,
  "avy": 2871,
  "ĠGreater": 17826,
  "rical": 8169,
  "Where": 8528,
  "ĠCanadian": 4458,
  "]]": 19719,
  "ĠPeace": 11937,
  "Ġpolled": 27625,
  "'re": 1348,
  "ĠQuote": 30100,
  "Ġscenario": 7727,
  "iologist": 25485,
  "Ġrecomm": 3436,
  "azed": 14130,
  "pected": 7042,
  "WS": 12205,
  "ina": 1298,
  "ĠNEW": 15566,
  "Ġtrump": 15723,
  "ĠPhilipp": 8344,
  "Ġnationalists": 24964,
  "yre": 28157,
  "Ġtags": 18379,
  "rates": 7269,
  "Ġwitness": 4697,
  "Ġflex": 7052,
  "dy": 9917,
  "Ġvirus": 8934,
  "rote": 2030,
  "ĠMcK": 10092,
  "Turkey": 24522,
  "More": 4738,
  "Ġpatient": 6012,
  "ĠGrizz": 29694,
  "tlement": 23693,
  "Ġmobil": 14041,
  "Ġrequest": 3336,
  "atform": 3132,
  "hello": 31489,
  "Ġdelay": 5874,
  "nect": 1717,
  "Ġmerchandise": 20406,
  "Ġrollout": 28397,
  "Ġculture": 3346,
  "ĠMethod": 14885,
  "Ġchicken": 9319,
  "Ġprize": 10184,
  ".âĢĶ": 23379,
  "gom": 16163,
  "ropic": 31809,
  "Ġstroke": 14777,
  "ĠLy": 8176,
  "Ġpartially": 11996,
  "Ġessential": 6367,
  "Ġbeneficiaries": 26844,
  "owners": 13083,
  "Ġ(.": 20530,
  "Ġsummary": 12038,
  "ĠIran": 3140,
  "odies": 4945,
  "ovych": 30271,
  "Ġchurches": 12498,
  "ĠThrow": 29951,
  "Ġwall": 3583,
  "rase": 24796,
  "ĠAlso": 5065,
  "Ġpenetration": 23586,
  "ĠIntercept": 31842,
  "Money": 24409,
  "ĠChoice": 21323,
  "ĠGri": 21594,
  "Twenty": 28611,
  "Ġparliamentary": 12896,
  "Ġtranspl": 30502,
  "Ġthemes": 11836,
  "Ġ330": 29918,
  "ĠMusk": 16707,
  "Ġutterly": 14931,
  "Ġillustrate": 17770,
  "ĠVirtual": 18993,
  "Ġfamiliarity": 28383,
  "Ġinvested": 11146,
  "Ġpneumonia": 30810,
  "eng": 1563,
  "Ġsurface": 4597,
  "Ġpsychiatrist": 26980,
  "ĠDeutsche": 28883,
  "Ġpowder": 13722,
  "ĠSpe": 3278,
  "Ġphilosopher": 19971,
  "ĠJos": 18873,
  "Ã¯": 22561,
  "Ġmuscular": 27833,
  "Ġmast": 20853,
  "Ġlanes": 12484,
  "Ġhect": 26238,
  "ĠIsis": 22217,
  "Ġnominated": 14248,
  "Ġlyrics": 13546,
  "ĠSaf": 7783,
  "ĠHalo": 18954,
  "five": 13165,
  "ĠPer": 2696,
  "ĠInternal": 21852,
  "type": 8459,
  "ĠBil": 21422,
  "Ġsocio": 20055,
  "Ġscrap": 12888,
  "backs": 8831,
  "Ġislands": 12511,
  "Ġproliferation": 22723,
  "uchs": 30476,
  "Ġlimitation": 22829,
  "Ġregression": 21717,
  "Ġcateg": 4611,
  "ll": 255,
  "Ġstere": 9867,
  "Ġeyeb": 20401,
  "Num": 28728,
  "affer": 26508,
  "Ġdeposits": 16790,
  "Ġexciting": 6727,
  "ĠChicken": 23771,
  "ĠBrew": 8413,
  "Ġsupplier": 22527,
  "Climate": 26087,
  "Ġtherape": 20573,
  "Ġeaten": 17381,
  "ĠStarCraft": 29021,
  "Ġwel": 4632,
  "Ġhoney": 12993,
  "Ġrecol": 27580,
  "reach": 14139,
  "DR": 10921,
  "Ġ2003": 5690,
  "nine": 27858,
  "Ġrooftop": 27661,
  "isions": 3197,
  "Ġcompetitive": 6513,
  "ãĢį": 31498,
  "ĠCategory": 28797,
  "anz": 25852,
  "Non": 17094,
  "table": 13508,
  "anton": 18891,
  "ĠHERE": 17310,
  "ĠSci": 10943,
  "Ġwave": 6522,
  "ĠCay": 27443,
  "ospel": 15209,
  "Ġlicenses": 14788,
  "ĠWi": 10937,
  "Ġris": 1922,
  "Ġ82": 13077,
  "Ġjoint": 6099,
  "Nevertheless": 23160,
  "Ġsuch": 870,
  "Ġlogged": 18991,
  "Ġsomeday": 22032,
  "Ġwarnings": 13243,
  "iples": 31614,
  "Ġ115": 20195,
  "Ġcarcin": 30162,
  "TI": 23337,
  "ĠShaun": 28684,
  "ero": 3664,
  "ĠRequ": 24759,
  "assis": 21386,
  "ĠWeiner": 25441,
  "Child": 18006,
  "ĠAc": 4671,
  "ĠSn": 7850,
  "Ġpiano": 17659,
  "Imm": 31600,
  "Ġgenerators": 24023,
  "hatt": 9636,
  "Ġfalls": 8918,
  "Ġinterpreter": 27057,
  "d": 68,
  "Ġwell": 822,
  "ĠGIF": 23958,
  "gence": 11697,
  "ĠBar": 2031,
  "ĠHutch": 26036,
  "Ġproportional": 27054,
  "ĠEPA": 10316,
  "Ġagain": 697,
  "Ġlargest": 3616,
  "iem": 27801,
  "Ġpope": 21555,
  "ĠAzure": 24750,
  "Ġvalidated": 29640,
  "India": 17067,
  "Ġfinances": 16875,
  "Ġpolicymakers": 22372,
  "ĠMatthews": 18050,
  "ĠDef": 3885,
  "Ġastronomy": 31205,
  "Ġvan": 5885,
  "Ġfinancing": 13092,
  "Ġmaturity": 24119,
  "Ġoptim": 5743,
  "ĠNigeria": 16012,
  "ĠLaud": 27563,
  "Ġacknowled": 6461,
  "ĠEmir": 17737,
  "ĠNATO": 8774,
  "odynam": 22708,
  "ĠToo": 15110,
  "ĠIntern": 2241,
  "Ġrecre": 9894,
  "Ġpara": 18793,
  "Shortly": 24314,
  "een": 9980,
  "ada": 4523,
  "Ġinvade": 27570,
  "ĠPackers": 14784,
  "Ġsixth": 9993,
  "monton": 15386,
  "Ġtasked": 18147,
  "rÃ©": 23485,
  "Ġpirates": 24350,
  "Ġseals": 29612,
  "Ġyears": 715,
  "cess": 934,
  "Ġdiscounts": 24630,
  "ĠCan": 1429,
  "school": 13016,
  "kers": 16706,
  "Ġrepeated": 4551,
  "Overall": 15885,
  "itially": 18071,
  "Ġpolice": 1322,
  "Ġscreamed": 25199,
  "Ġcooperate": 18077,
  "image": 13253,
  "ĠCI": 18632,
  "ĠÍ": 31699,
  "Ġindicated": 8054,
  "Ġjew": 13639,
  "Ġphotos": 4926,
  "ls": 7247,
  "Ġstronghold": 28392,
  "ĠSciences": 13294,
  "Ġwaters": 8953,
  "ĠChristopher": 11101,
  "Ġsolitary": 22142,
  "Ġmotion": 6407,
  "Ġamen": 22930,
  "Ġinsights": 15126,
  "Soon": 24128,
  "Ġouts": 8507,
  "malink": 25508,
  "ĠHon": 9399,
  "UR": 7088,
  "Ġhardly": 8128,
  "ĠHydro": 27172,
  "Your": 8863,
  "ĠTuls": 29346,
  "ĠZealand": 7654,
  "ĠBeyon": 30729,
  "link": 11042,
  "Ġlays": 24410,
  "Ġsnap": 14693,
  "ĠUkrainian": 10911,
  "Ġsepar": 2923,
  "Ġauthorized": 13227,
  "Ġaccompan": 10282,
  "ĠBroadcasting": 26689,
  "Ġaddress": 2249,
  "Ġmimic": 24420,
  "Â®": 14228,
  "Ġpersecuted": 31846,
  "ĠJuventus": 31036,
  "ĠJavaScript": 10451,
  "ĠHayes": 20532,
  "ĠNeuro": 17155,
  "Ġfreel": 16867,
  "Ġslash": 23611,
  "Ġmeets": 11772,
  "ĠTrinity": 23555,
  "ograph": 2252,
  "Ġcomprehens": 8299,
  "ĠFinnish": 24385,
  "Ġpresident": 1363,
  "Let": 5306,
  "Ġnamed": 3284,
  "ĠMerkel": 13259,
  "Ġjog": 28101,
  "gered": 9794,
  "Ġbreasts": 22494,
  "78": 6939,
  "azy": 12636,
  "ĠDomestic": 31133,
  "Ġpepper": 14144,
  "Ġfur": 9344,
  "ĠSheikh": 23395,
  "Certainly": 29675,
  "imb": 4896,
  "enty": 3623,
  "Ġstores": 6314,
  "Ġvice": 6401,
  "ĠKhal": 26299,
  "Ġrobust": 10773,
  "Ġslog": 20093,
  "Ġpaste": 18229,
  "ĠRather": 10067,
  "ĠFairfax": 25674,
  "Ġcomedy": 8818,
  "ĠGab": 12071,
  "ies": 397,
  "ĠWant": 17684,
  "Ġbutt": 9303,
  "Project": 19242,
  "ĠBurton": 22212,
  "Ġlip": 13225,
  "ĠSaint": 11925,
  "Ġtricks": 15237,
  "Ġtriangle": 22879,
  "Ùĩ": 24717,
  "Ġtension": 11357,
  "Ġ5000": 29498,
  "Ġaggravated": 22478,
  "ĠEC": 11770,
  "Ġiter": 11519,
  "Ġill": 2804,
  "Ġhanding": 18287,
  "oneliness": 31292,
  "Ġenvironment": 2544,
  "ĠTT": 27369,
  "attle": 3834,
  "rise": 17233,
  "Ġmurder": 4641,
  "Ġrelie": 11703,
  "Writ": 13880,
  "urrent": 7719,
  "usterity": 14824,
  "Ġtold": 1082,
  "ĠFrancois": 31566,
  "majority": 28635,
  "those": 23188,
  "Ġfinishing": 11403,
  "Ġbiof": 28567,
  "Ġwinning": 4405,
  "Ġmindset": 16571,
  "Ġefficiency": 8785,
  "ros": 4755,
  "Ġacting": 6553,
  "Ġco": 640,
  "ili": 2267,
  "Ġexpansive": 26039,
  "ands": 1662,
  "Ġdiscrimin": 11666,
  "Ġcampaigned": 22998,
  "Ġspelled": 28912,
  "sac": 30420,
  "ÄŁ": 20737,
  "Sun": 18484,
  "ĠCho": 13012,
  "Ġcash": 4589,
  "olkien": 27671,
  "Ġturned": 2782,
  "Ġrefrigerator": 30952,
  "Ġsimple": 2802,
  "ĠAdult": 26858,
  "Ġvirt": 3954,
  "Ġ01": 13015,
  "Ġthoughtful": 19597,
  "ĠMahar": 24601,
  "soft": 4043,
  "Ġpregn": 6614,
  "ĠAce": 22369,
  "Ġoverwhelmingly": 16775,
  "Ġsustainable": 10659,
  "Ġambig": 16896,
  "ĠAgg": 24124,
  "Ġarchive": 15698,
  "Ġcontainers": 16086,
  "Ġoriginal": 2625,
  "ĠStock": 11178,
  "ĠSN": 11204,
  "Ġpine": 20421,
  "Ġgoes": 2756,
  "Ġmerely": 6859,
  "77": 5896,
  "hey": 17199,
  "Ġisol": 6475,
  "ĠTarget": 15455,
  "chin": 22889,
  "wart": 6773,
  "Ġcryptocurrency": 16580,
  "Ġscar": 10548,
  "Ġempirical": 20637,
  "bag": 20713,
  "ĠBecause": 4247,
  "Initially": 31322,
  "Ġperiodically": 26373,
  "nel": 4722,
  "ĠBrook": 6441,
  "Ġinvestigating": 8508,
  "ĠChuck": 12905,
  "orse": 6066,
  "Ġshortage": 15273,
  "iya": 22241,
  "Ġdevast": 8234,
  "ĠThursday": 2868,
  "ĠMark": 3151,
  "Ġsupervised": 28296,
  "ce": 303,
  "Ġsidelined": 29991,
  "Ġpawn": 28041,
  "Ġdopamine": 26206,
  "running": 17314,
  "Ġstacks": 26192,
  "Ġnecessarily": 6084,
  "Ġbribes": 31271,
  "ablish": 17180,
  "lux": 20463,
  "Ġecho": 10023,
  "ĠParad": 19500,
  "ĠRid": 23519,
  "Ġwaves": 9498,
  "Ġdepression": 8725,
  "odore": 22175,
  "ĠBirth": 21090,
  "Night": 27411,
  "ĠFav": 28047,
  "Ġprone": 17097,
  "ĠRw": 26850,
  "Ġpatron": 17846,
  "Ġharassed": 22882,
  "Sports": 15329,
  "Ġprocess": 1351,
  "li": 906,
  "ĠGrade": 25899,
  "inition": 25932,
  "Ġskill": 6568,
  "Ġtendencies": 23031,
  "Ġjudgments": 24151,
  "scar": 10744,
  "Ġopposite": 6386,
  "NF": 23037,
  "Îµ": 21613,
  "Ġ119": 23542,
  "Ġglitch": 31697,
  "WC": 23038,
  "Ġice": 4367,
  "ught": 8985,
  "Ġhat": 6385,
  "Ġvoters": 3357,
  "Î¿": 18158,
  "Ġmodest": 11126,
  "ulate": 4866,
  "Similar": 26941,
  "ĠRyan": 4895,
  "Ġaston": 15171,
  "ĠBrazil": 6198,
  "Ġshortcomings": 25992,
  "Ġanalyst": 9566,
  "ĠMali": 25407,
  "Ġestablished": 4763,
  "Ġcess": 30761,
  "ives": 990,
  "ellow": 5923,
  "Ġinfilt": 16987,
  "Ġbarring": 27396,
  "Ġconduct": 3079,
  "uled": 21417,
  "achus": 8109,
  "Call": 16864,
  "hod": 2410,
  "omers": 16502,
  "Ġ1978": 14397,
  "ÐµÐ½": 18639,
  "Ġdissemin": 27740,
  "Nothing": 17809,
  "sey": 3866,
  "Ġhed": 14049,
  "Ġcit": 22434,
  "ĠFrankfurt": 26803,
  "ł": 211,
  "ĠFC": 7881,
  "eur": 23945,
  "Î": 137,
  "Ġpiece": 3469,
  "Ġfailure": 4973,
  "Ġmasc": 12928,
  "Ġobsession": 18928,
  "Ġdynamic": 8322,
  "ĠBurr": 31532,
  "Ġrecap": 24446,
  "lah": 8509,
  "stat": 27237,
  "Ġforces": 2944,
  "Ġhacks": 26026,
  "Ġconsolid": 14034,
  "paper": 19673,
  "skin": 22847,
  "Ġfres": 31625,
  "Ġaber": 29877,
  "general": 22216,
  "Ġsync": 19214,
  "iens": 10532,
  "Ġguarantee": 8663,
  "ÃŃn": 29340,
  "Ġâĸł": 31083,
  "ĠConstant": 28472,
  "Ġoutsiders": 23612,
  "IG": 5445,
  "Ġevacuate": 30603,
  "Ġairstrikes": 21073,
  "Details": 28245,
  "Ġnicotine": 23412,
  "Ġloaded": 10677,
  "Ġplayful": 31766,
  "Ġske": 6053,
  "Ġstory": 1410,
  "Ġspheres": 31351,
  "Ġexclude": 20212,
  "Ġgenerator": 18810,
  "zon": 26493,
  "ĠHour": 22172,
  "Moving": 28914,
  "Everyone": 14158,
  "Sanders": 18824,
  "util": 29894,
  "Ġbuilders": 27719,
  "ĠBirds": 29430,
  "âĸĪâĸĪ": 13346,
  "Ġmarg": 5504,
  "Ġpersonalities": 18313,
  "Ġcollectively": 17641,
  "elo": 22911,
  "ĠGob": 28019,
  "asted": 8872,
  "ĠCubs": 16454,
  "Ġparticipation": 9685,
  "ĠForrest": 30017,
  "reported": 26368,
  "Ġconstruction": 4683,
  "plement": 26660,
  "ĠWire": 15512,
  "Ġwor": 429,
  "ĠDim": 16821,
  "Ġcoward": 25050,
  "ĠBelgium": 13642,
  "ĠAns": 23639,
  "ĠExper": 9813,
  "ufact": 3628,
  "Ġreprodu": 8401,
  "Ġ41": 7994,
  "N": 46,
  "itation": 3539,
  "Modern": 26588,
  "Ġdel": 2714,
  "itches": 19373,
  "ĠSequ": 30782,
  "ĠJamie": 15159,
  "Ġginger": 26571,
  "reci": 26585,
  "uart": 16766,
  "Hi": 20258,
  "ential": 1686,
  "ĠWhatsApp": 21062,
  "Ġgestures": 22642,
  "icer": 7206,
  "ĠCharlottesville": 21453,
  "Ġmassac": 28342,
  "Ġproductions": 26318,
  "Ġtheme": 6911,
  "Ġbind": 14032,
  "Ġdamn": 12115,
  "ĠPyongyang": 18412,
  "Ġcustomize": 26215,
  "Ġassumes": 18794,
  "Ġwinners": 11747,
  "ller": 5556,
  "Ġwisely": 29968,
  "ĠCob": 18573,
  "Ġindictment": 16625,
  "Ġrepresented": 7347,
  "Ġrental": 15396,
  "aid": 1931,
  "ribe": 26164,
  "mentia": 23742,
  "ikhail": 31990,
  "ĠHarbor": 19338,
  "ï": 170,
  "Ġexperiments": 9211,
  "Ġsincerely": 27037,
  "Ġstud": 884,
  "Ġrequired": 3201,
  "Ġlava": 30137,
  "ĠEducation": 8031,
  "ale": 1020,
  "Ġface": 1963,
  "ĠPeriod": 22389,
  "jet": 24405,
  "Ġsuccess": 1683,
  "Ġothers": 1781,
  "ĠShawn": 22201,
  "ĠUd": 31238,
  "drug": 28202,
  "Ġprimarily": 7144,
  "hash": 21860,
  "rescent": 26920,
  "ible": 854,
  "Ġpetrol": 26632,
  "Ġcultivate": 30249,
  "ĠChristie": 12842,
  "Ġzomb": 12434,
  "Ġintelligent": 11784,
  "Ġencouraged": 8735,
  "Ġemotionally": 16097,
  "Ġmeal": 10485,
  "Ġformats": 18540,
  "OM": 3734,
  "Ġmissions": 9750,
  "double": 27260,
  "Ġenjoy": 2886,
  "Ġdebating": 24554,
  "Ġstal": 20543,
  "Ġconstrain": 12448,
  "Ġdrops": 11607,
  "Ġpoints": 2070,
  "Ġcircuit": 11489,
  "pher": 16531,
  "Ġnav": 6374,
  "Ġimmunity": 17183,
  "Ġdiscon": 14748,
  "power": 6376,
  "ename": 22897,
  "ian": 603,
  "âĢĶ": 877,
  "ordinarily": 25580,
  "Ġsending": 6744,
  "ĠKash": 16074,
  "Ġext": 1033,
  "Ġaccurately": 13596,
  "ĠPet": 5008,
  "Set": 12357,
  "Feed": 16685,
  "ĠChicago": 4101,
  "ustain": 16389,
  "Ġcritique": 16503,
  "pal": 19060,
  "Ġpremier": 14863,
  "Ġdisproportionately": 23298,
  "Ġev": 760,
  "ĠCarol": 4515,
  "Ġranch": 25433,
  "op": 347,
  "ĠWyn": 23344,
  "ACE": 17005,
  "ĠTol": 19009,
  "Ġvitamin": 18772,
  "ĠConnor": 23846,
  "168": 24261,
  "ĠComm": 1923,
  "Ġorganis": 11009,
  "poor": 31509,
  "Ġpainful": 11520,
  "ĠEnvironmental": 12008,
  "Ġstarters": 15903,
  "Ġability": 2700,
  "Ġconducting": 12796,
  "Ġruthless": 26172,
  "Ġads": 7436,
  "Ġonslaught": 30357,
  "Ġjeopardy": 31179,
  "ĠLloyd": 19105,
  "Ġlining": 19397,
  "ĠEdition": 11006,
  "rin": 11286,
  "Ġinvestment": 4252,
  "ACT": 17063,
  "Fig": 13255,
  "ĠMaduro": 24168,
  "Ġquarterback": 5921,
  "Ġcocaine": 13535,
  "Ġterrified": 20140,
  "Ġfourteen": 29285,
  "Ġmos": 9369,
  "ĠVista": 25531,
  "enery": 26399,
  "Ġinterceptions": 21665,
  "ĠOper": 7391,
  "ules": 7608,
  "Australian": 30509,
  "verted": 16453,
  "Ġhopeless": 20960,
  "Ġconsulting": 15810,
  "Ġperform": 1599,
  "Ġdeny": 9293,
  "umn": 4828,
  "struct": 27790,
  "Ġhousehold": 6355,
  "Islamic": 21136,
  "vironment": 2216,
  "Ġsys": 29493,
  "Ġideology": 10492,
  "Ġresembling": 28351,
  "Ġshovel": 31192,
  "ĠBi": 9919,
  "Ġwherever": 13868,
  "ĠDEL": 27522,
  "ĠOrioles": 24467,
  "ever": 948,
  "ĠLetter": 20097,
  "ĠCur": 5477,
  "Ġclues": 18492,
  "Ġinterpreted": 15681,
  "ĠFried": 12866,
  "ĠArmstrong": 17619,
  "Maybe": 11708,
  "ĠÐ¾": 19046,
  "issan": 21111,
  "Ġincredibly": 7307,
  "Ġadvocates": 8513,
  "ĠMilk": 27086,
  "Ġtram": 27444,
  "Ġfilms": 5593,
  "Ġdigital": 4202,
  "Ġpiss": 17772,
  "Ġhide": 8072,
  "Ġheaded": 7858,
  "ĠDanish": 17444,
  "Ġpregnant": 10363,
  "Ġcriticized": 9015,
  "Ġlightweight": 18320,
  "ozy": 24716,
  "ĠKaplan": 31406,
  "Ġcars": 4111,
  "ĠBack": 5986,
  "Ġcomparative": 30165,
  "ĠSirius": 29872,
  "Ġachievement": 12395,
  "Ġenvelop": 16636,
  "cock": 18370,
  "ĠThanksgiving": 18086,
  "Ġtutorials": 27091,
  "Ġfed": 11429,
  "Ġepisode": 4451,
  "Ġstealth": 19641,
  "Carl": 23327,
  "icials": 13049,
  "Ġtreaties": 27179,
  "ĠTrent": 20898,
  "Ġdisclosures": 26491,
  "ĠOil": 11162,
  "Ġproclaimed": 21956,
  "50": 1491,
  "Ġscrolling": 30339,
  "stud": 18854,
  "Ġtruth": 3763,
  "Ġblame": 6818,
  "Ġimplications": 9604,
  "heastern": 15590,
  "ror": 1510,
  "Ġexploded": 16555,
  "ĠMIN": 27123,
  "ĠWake": 19554,
  "Ġcinematic": 24754,
  "versely": 20569,
  "raig": 9607,
  "ĠCy": 6535,
  "Ġswim": 9064,
  "Ġwhose": 2764,
  "ĠSimpson": 17555,
  "Ġjo": 2076,
  "orer": 12131,
  "Ġnostalgia": 24315,
  "ORE": 6559,
  "cot": 19520,
  "Ġgrievances": 28430,
  "Ġliquor": 18446,
  "houses": 18749,
  "ĠOnt": 8186,
  "orig": 12653,
  "Ġfederation": 29279,
  "Ġpose": 11340,
  "Bring": 30839,
  "ĠNazis": 16485,
  "Prosecutors": 29656,
  "Ġpol": 638,
  "ĠSentinel": 25013,
  "uation": 2172,
  "Ġtransformed": 13266,
  "ĠIsland": 5425,
  "Ġfinest": 18597,
  "Ġsounds": 5144,
  "Ġmism": 27401,
  "Ġcompleted": 5620,
  "ĠBernanke": 31541,
  "Jac": 25632,
  "ÅĤ": 23720,
  "Ð»Ð¸": 24213,
  "Ġ121": 27916,
  "ĠOf": 3630,
  "Äģ": 10832,
  "ĠFallout": 29183,
  "Ġvote": 2389,
  "ĠActive": 21078,
  "Ġhandling": 8692,
  "Ġshelters": 20494,
  "umen": 21961,
  "Ġneighbour": 8350,
  "ĠMH": 24489,
  "12": 1762,
  "Ġarticles": 6238,
  "ãĢ": 7476,
  "ĠXia": 23253,
  "Ġ79": 13793,
  "ĠPerformance": 17576,
  "Point": 14455,
  "Ġanticipation": 20996,
  "cyclopedia": 29389,
  "ĠHunger": 30444,
  "ĠRh": 11565,
  "ĠInvest": 7642,
  "Learn": 25586,
  "iant": 3059,
  "ĠNa": 11872,
  "Ġphilosophy": 7957,
  "ylan": 16344,
  "vised": 15745,
  "ĠSharma": 31422,
  "omb": 2602,
  "Ber": 21870,
  "Ġneighboring": 16204,
  "Ġanalog": 15354,
  "Ġbusiness": 1383,
  "mart": 12298,
  "Ġscan": 8909,
  "Any": 7101,
  "atories": 18302,
  "Ġcustomization": 30901,
  "ĠAges": 24304,
  "Ġingest": 28446,
  "rust": 12856,
  "Ġrelaxed": 18268,
  "roup": 910,
  "Ġworst": 4563,
  "arily": 2972,
  "Ġsoared": 27704,
  "ĠBBC": 5667,
  "Ġcelebration": 12104,
  "Fi": 10314,
  "Ġcheaper": 10185,
  "Ġdictated": 30334,
  "enton": 23610,
  "Ġtoggle": 18797,
  "Ġlead": 914,
  "ĠSyrian": 5129,
  "iscons": 7364,
  "ĠGarland": 30754,
  "okes": 2623,
  "Ġfamous": 5249,
  "Ġpostponed": 26564,
  "Ġdazz": 30631,
  "Ġambitious": 11568,
  "ĠAmbassador": 17861,
  "Ġsellers": 21474,
  "Ãª": 19217,
  "Ġbirth": 4030,
  "Ġgirls": 4812,
  "58": 7218,
  "Ġthumb": 14521,
  "Ġhackers": 13045,
  "Block": 23769,
  "ĠLat": 5206,
  "Ġcondemned": 12401,
  "leck": 30190,
  "Ġmonop": 13495,
  "ĠZone": 16312,
  "Ġlisteners": 19906,
  "Ġ1957": 22223,
  "Ġstub": 17357,
  "ĠTry": 13905,
  "ĠDiana": 24379,
  "otle": 21754,
  "ARD": 14424,
  "Ġproceeded": 18687,
  "Ġphon": 31603,
  "ĠMohammed": 16036,
  "gest": 2941,
  "ĠGoal": 26137,
  "Ġwording": 26068,
  "built": 19142,
  "Ġradio": 4474,
  "Ġgrade": 9664,
  "ipedia": 10632,
  "Ġdelivery": 8000,
  "ĻĤ": 24965,
  "Ġincorporates": 30369,
  "ĠGun": 8942,
  "creat": 22767,
  "Below": 20112,
  "Ġmain": 1306,
  "ocese": 25062,
  "Ġsplash": 21869,
  "ĠAnti": 12729,
  "Ġindependently": 13902,
  "ĠCort": 24819,
  "Ġcomprising": 27888,
  "Yet": 9160,
  "ĠPrize": 13311,
  "If": 1527,
  "Ġhowever": 2073,
  "Ġdebugging": 29879,
  "chell": 10587,
  "although": 15449,
  "Ġavo": 10804,
  "ĠKel": 14251,
  "Ġaddition": 3053,
  "Ġhomicides": 28754,
  "Ġsurprisingly": 10926,
  "Ġtheir": 454,
  "T": 52,
  "ĠBattlefield": 30285,
  "itant": 22876,
  "ĠMcKin": 25462,
  "urity": 1443,
  "witzerland": 12125,
  "sens": 18677,
  "ricted": 21581,
  "Ġsmok": 19302,
  "ĠDub": 12982,
  "Ġacceleration": 20821,
  "Ġpossess": 9480,
  "inance": 13343,
  "Ġhorrific": 16155,
  "conf": 8827,
  "cific": 8356,
  "uds": 21152,
  "ĠTayyip": 31945,
  "ĠShepard": 29287,
  "jee": 28462,
  "selves": 1848,
  "ï¼Į": 26769,
  "Ġpivotal": 22856,
  "Ġleaks": 13909,
  "Ġplenty": 5371,
  "ĠPist": 20137,
  "Ġsciences": 18478,
  "Ġcoins": 11806,
  "Ġpreval": 12672,
  "Ġste": 2904,
  "augh": 1519,
  "Ġrecreational": 15485,
  "..": 709,
  "ilitation": 17766,
  "horn": 30536,
  "ĠRare": 19921,
  "Ġ95": 9317,
  "ĠGrad": 20481,
  "Ġpronounce": 26470,
  "Ġoffshore": 14030,
  "Yes": 6103,
  "Ġcosts": 3291,
  "act": 463,
  "ĠFlickr": 20728,
  "ĠCance": 27681,
  "row": 770,
  "Ġgeneration": 4685,
  "Ġcas": 5464,
  "Ġsurn": 30287,
  "undreds": 16468,
  "Ġhesitation": 30281,
  "iership": 29439,
  "ĠShanghai": 17566,
  "Ġroles": 7938,
  "×Ļ": 29349,
  "Ġsmoking": 9289,
  "Gar": 24792,
  "asing": 2107,
  "IC": 3106,
  "Ġoptional": 16089,
  "ishment": 19724,
  "Sa": 31394,
  "Labour": 25291,
  "Ġcrisp": 23362,
  "access": 16796,
  "Ġshowc": 17964,
  "ĠSmart": 11880,
  "ĠEconom": 6569,
  "ĠFernand": 21292,
  "ĠHannity": 24090,
  "ĠBull": 7493,
  "rones": 14901,
  "Ġcheck": 2426,
  "ô": 175,
  "erald": 11242,
  "ĠMau": 24318,
  "Ġblat": 17743,
  "ĠKal": 11517,
  "Ġeg": 30553,
  "ĠFormula": 17165,
  "Ġcheating": 20175,
  "Ġmant": 21329,
  "Ġconstructed": 11427,
  "American": 6133,
  "west": 6381,
  "ĠCaribbean": 16582,
  "nav": 29699,
  "Ġprefers": 23165,
  "Ġattracting": 20400,
  "ĠRiy": 27183,
  "ĠOn": 1722,
  "Ġwhom": 4121,
  "Ġ==": 11776,
  "ĠHuff": 11947,
  "ĠRevel": 28804,
  "ĠAK": 17222,
  "Ġvulgar": 30258,
  "ĠSept": 8360,
  "ĠTam": 11325,
  "Ġphilosoph": 6080,
  "Ġbrothers": 8496,
  "Ġundermining": 23319,
  "eval": 19584,
  "Ġbanning": 15746,
  "ĠNewport": 31048,
  "Ġshort": 1681,
  "Ġblog": 3493,
  "ĠMarkets": 26953,
  "iana": 7199,
  "Ġscrim": 24982,
  "ĠComputer": 15707,
  "isson": 28359,
  "Ġpeacefully": 25837,
  "Ġlog": 2742,
  "away": 8027,
  "Ġswitched": 14068,
  "Ġcompany": 1365,
  "lynn": 10889,
  "Ġausterity": 16055,
  "ĠSue": 24511,
  "ĠNumber": 14234,
  "Ġric": 10930,
  "ĠTibetan": 26855,
  "ĠAnim": 13804,
  "Ġeffect": 1309,
  "ometer": 16483,
  "Ġoxy": 10864,
  "ĠÂ©": 12524,
  "ĠExample": 27490,
  "Ġrelevance": 21268,
  "Ġdistribut": 10929,
  "ĠMarijuana": 23399,
  "åĪ": 29940,
  "ĠEuropean": 2869,
  "Ġvolunte": 6451,
  "Ġ2050": 25363,
  "Ġtravers": 31828,
  "ports": 3453,
  "Ġbalcon": 26859,
  "Ġtrapped": 12708,
  "ĠLinda": 20088,
  "ĠCell": 16169,
  "Ġtone": 8369,
  "Ġbloggers": 22450,
  "Ġsur": 892,
  "Ġwouldn": 3347,
  "ĠHide": 12913,
  "Ġus": 479,
  "inqu": 20000,
  "Ġmeasurements": 14244,
  "ĠBut": 781,
  "Ġfranchise": 6852,
  ">>": 5570,
  "Ġsauce": 12232,
  "Ġimaging": 18438,
  "rolled": 8215,
  "bows": 28558,
  "umbs": 21580,
  "600": 9192,
  "Ġawhile": 27488,
  "Ġ1932": 28138,
  "Ġcompat": 9875,
  "Ġgenerate": 7278,
  "Social": 18626,
  "Ġfarmers": 7993,
  "ĠDodd": 24925,
  "Ġbourgeois": 19847,
  "ilit": 5839,
  "ĠDayton": 20220,
  "ĠHub": 13296,
  "Ġfragment": 25693,
  "Ġarose": 20362,
  "Ġtheat": 8465,
  "ĠProv": 9005,
  "Ġdemise": 20607,
  "ĠMitt": 12875,
  "Ġresentment": 24533,
  "ought": 2770,
  "ĠEasy": 21420,
  "Ġdup": 29416,
  "Travel": 31117,
  "ĠAn": 1182,
  "Ġscheduling": 23477,
  "Ġcolleague": 12850,
  "ĠCOL": 29066,
  "ham": 2530,
  "Ġbreach": 12171,
  "Personal": 28025,
  "achment": 11205,
  "ĠKind": 14132,
  "ĠExcel": 30036,
  "Ġslaves": 13663,
  "Ġdisagreement": 21585,
  "oday": 3876,
  "Again": 14316,
  "valid": 12557,
  "Ġdeport": 24276,
  "ĠLinkedIn": 22195,
  "anie": 30574,
  "ĠBie": 24629,
  "Ġearns": 25878,
  "Ġsay": 800,
  "Ġsocks": 24003,
  "yn": 2080,
  "Ġvic": 17864,
  "udge": 12565,
  "Ġsands": 24617,
  "Ġinsults": 24472,
  "ĠDoing": 24804,
  "Through": 12830,
  "Ã±o": 22620,
  "Ġtoe": 20659,
  "Ġdemocracies": 31363,
  "Ġmold": 16683,
  "igh": 351,
  "uv": 13797,
  "Ġbeyond": 3395,
  "lov": 31108,
  "Ġshoots": 20856,
  "Ġgoalkeeper": 20270,
  "ĠE": 398,
  "Ġbuying": 6332,
  "Ġtwin": 14457,
  "estinal": 25164,
  "Ġathletics": 28519,
  "Ġsidel": 26789,
  "profile": 11805,
  "igion": 17200,
  "Ġvulnerable": 7526,
  "document": 28002,
  "ĠRoh": 26522,
  "ĠDrew": 16328,
  "Rs": 28490,
  "Ġdesk": 6652,
  "History": 16473,
  "Ġaesthetic": 17355,
  "Ġhem": 17385,
  "ottenham": 16866,
  "ĠLieutenant": 23232,
  "ARS": 23499,
  "Ġstra": 3608,
  "Ġcheckpoint": 26621,
  "ĠGL": 23009,
  "lv": 6857,
  "Ġdenied": 5736,
  "Ġinitiatives": 12433,
  "ĠCardiff": 25668,
  "Ġgreed": 16280,
  "ĠShia": 21772,
  "ĠResolution": 25364,
  "Ġroster": 7352,
  "Ġstrained": 27070,
  "Ġhelpful": 8926,
  "rophic": 15660,
  "agged": 14810,
  "ĠÃ¤": 30550,
  "Ġscreenplay": 29110,
  "Ġrefresh": 22462,
  "iatric": 18113,
  "Ġprinc": 5100,
  "Ġhazards": 27775,
  "ĠMotor": 11969,
  "Ã¢": 9881,
  "Ġgrammar": 23223,
  "Ġinsect": 13003,
  "Ġtaxed": 28871,
  "Brien": 16740,
  "ĠShar": 14562,
  "Ġtonight": 9382,
  "Ġgrie": 26117,
  "ĠRust": 18429,
  "ĠDust": 18373,
  "Ms": 9628,
  "Ġadequately": 21059,
  "Ġconfidence": 5799,
  "ologists": 8143,
  "ĠIdaho": 17595,
  "ĠLB": 23394,
  "Ġrude": 22766,
  "Ġsliding": 22873,
  "add": 3264,
  "ĠSaturday": 3236,
  "eda": 22089,
  "Ġdependent": 10966,
  "ĠBannon": 15409,
  "Ġsoap": 20067,
  "ĠLib": 6254,
  "Ġmay": 767,
  "Ġtale": 11513,
  "Ġbikes": 14377,
  "ĠDiet": 19220,
  "Ġsatire": 28719,
  "ĠSamantha": 29943,
  "Ġarray": 8253,
  "Ġ450": 21168,
  "dig": 13034,
  "Ġreboot": 19951,
  "osc": 18255,
  "Ġunbeat": 29071,
  "Ġnever": 1175,
  "Ġindependents": 25194,
  "Ġscanned": 28685,
  "IGN": 23228,
  "ĠDublin": 14500,
  "ĠAnnie": 27049,
  "ĠEVER": 23691,
  "Ġgigantic": 23207,
  "ĠBrid": 28451,
  "Ġjournal": 3182,
  "amm": 5653,
  "ĠFeed": 22431,
  "Ġacquire": 12475,
  "Ġactivity": 3895,
  "Ġtwins": 20778,
  "ĠTruth": 14558,
  "Ġmounting": 17197,
  "Ġopener": 17700,
  "Ġopenly": 9706,
  "Ġtheory": 4226,
  "Ġworship": 12835,
  "ĠHel": 6499,
  "Ġcollections": 16795,
  "Ġaction": 2233,
  "ĠEuropa": 22259,
  "Ġforty": 18054,
  "INGS": 27938,
  "Ġdistress": 16784,
  "inth": 22322,
  "Ġcompliment": 18788,
  "ĠVII": 24323,
  "ĠAudio": 19898,
  "ĠUtah": 9080,
  "Ġimplementations": 25195,
  "Ġaren": 3213,
  "ĠBentley": 31602,
  "ab": 364,
  "Ġsecrecy": 18741,
  "alo": 6923,
  "Ġmade": 863,
  "Ġlyr": 12241,
  "Ġcarte": 24078,
  "Ġfaces": 5801,
  "International": 22834,
  "ĠNRA": 19077,
  "Ġchlor": 21656,
  "Ġpackage": 5729,
  "er": 220,
  "Ġorbital": 28046,
  "Ġhorns": 26790,
  "Ġunderwater": 18629,
  "ĠKickstarter": 12058,
  "Ġpoly": 8565,
  "ĠGuardian": 8430,
  "Ġhoax": 21251,
  "Ġsought": 6214,
  "********": 8819,
  "iate": 8959,
  "Ġoutlined": 14641,
  "ĠAuthorities": 26901,
  "Ġpolicemen": 27067,
  "Ġweb": 3844,
  "Ġarrow": 18863,
  "ĠDirector": 5765,
  "Ġstakeholders": 21374,
  "Sty": 27489,
  "Ġbans": 16380,
  "Ò": 141,
  "Results": 27951,
  "Ġmosquito": 29801,
  "good": 10799,
  "Ġalready": 1370,
  "Ġhalf": 1890,
  "ĠTurbo": 31543,
  "Ġcripp": 18406,
  "ĠQuality": 21068,
  "Ġdelicate": 19251,
  "twitter": 6225,
  "img": 17327,
  "RL": 9043,
  "bs": 1525,
  "Ġraped": 14329,
  "Ġbranding": 22355,
  "Ġemergency": 5650,
  "Ġsoda": 20389,
  "Pen": 28711,
  "202": 28856,
  "Ġvend": 10225,
  "G": 39,
  "ĠGermany": 3805,
  "ordan": 6503,
  "ĠTucson": 31016,
  "Ġdisposal": 17313,
  "vo": 11290,
  "umat": 25348,
  "stairs": 18569,
  "PH": 14680,
  "Ġtyping": 19565,
  "funded": 14073,
  "ĠRaymond": 22487,
  "Ġepidem": 25444,
  "Ġuse": 838,
  "Ġtoug": 11755,
  "ĠStart": 8808,
  "ĠZe": 10021,
  "ilation": 11129,
  "igen": 7789,
  "owntown": 19449,
  "Ġtore": 23870,
  "Ġtrailers": 29380,
  "Ġcommunic": 3262,
  "ĠMcF": 29403,
  "ĠPosition": 29565,
  "Ġcoin": 11518,
  "Ġstatic": 11065,
  "Ġoutlaw": 19485,
  "Ġspoon": 26514,
  "Ġfav": 1918,
  "Ġblue": 4647,
  "Ġfractured": 27477,
  "ĠNobody": 14986,
  "ĠApple": 3527,
  "Ġmouth": 6583,
  "ĠDurham": 25496,
  "Ġstriving": 30507,
  "Ġconsum": 2423,
  "ĠContact": 19693,
  "ĠEntertainment": 10863,
  "ĠJose": 4975,
  "ĠNine": 16834,
  "Ġagon": 26333,
  "125": 17074,
  "190": 26594,
  "ĠI": 272,
  "eler": 16045,
  "Ġclich": 28537,
  "itution": 2511,
  "Ġattached": 8398,
  "ito": 9717,
  "Ġabroad": 9097,
  "reamed": 15181,
  "Ġsprint": 18487,
  "Ġsomebody": 7111,
  "adjusted": 30074,
  "Ġvulner": 5393,
  "ĠWilson": 6848,
  "Ġadministrators": 15867,
  "Ġcorrel": 10839,
  "Ġvolcanic": 26020,
  "assion": 11278,
  "Ġankle": 18123,
  "Ġreceipts": 30337,
  "Ġduration": 12293,
  "isexual": 18747,
  "Ġprophet": 24833,
  "ĠRena": 24891,
  "ĠTet": 30520,
  "olves": 9238,
  "Building": 27263,
  "Cruz": 30417,
  "Ġrepeatedly": 6594,
  "Ġsorting": 28165,
  "Ġreconcile": 29006,
  "Ġidol": 21322,
  "pered": 13977,
  "femin": 29949,
  "Ġprops": 24735,
  "Ġ70": 4613,
  "Ġcrazy": 6525,
  "Ġcontractors": 14717,
  "Ġwipe": 20460,
  "Ġreliability": 18056,
  "ĠWalsh": 19023,
  "Ġpockets": 15243,
  "Ġintellectual": 8014,
  "arius": 21907,
  "ĠStam": 23143,
  "ĠGamer": 23386,
  "Ġtier": 14503,
  "Ġprompted": 10245,
  "Ġperiods": 10016,
  "SW": 20457,
  "Ġspotlight": 14660,
  "ĠTwin": 18599,
  "Ġcourts": 7202,
  "Ġexported": 28004,
  "Ġtennis": 17087,
  "Ġprinters": 30044,
  "ĠGuer": 25193,
  "Ġassim": 24139,
  "ĠSpo": 25124,
  "fu": 26357,
  "ĠHouston": 6383,
  "Ġ>": 3509,
  "oulder": 17428,
  "ĠAlabama": 7843,
  "Ġscrub": 26541,
  "Ġrating": 7454,
  "Ġincorpor": 8367,
  "Ġconcerns": 3987,
  "Cap": 13402,
  "ĠVi": 13940,
  "Ġkitchen": 9880,
  "Ġwires": 21129,
  "ĠVolunte": 29786,
  "mble": 10801,
  "Ġ1912": 29446,
  "osophy": 23814,
  "Ġrealize": 5950,
  "gl": 5273,
  "Based": 15508,
  "Ġ1940": 13949,
  "Ġfreely": 12519,
  "Play": 15537,
  "Ġevade": 29334,
  "ĠGone": 26727,
  "Ġmelt": 14781,
  "bot": 15164,
  "ĠPolitics": 15551,
  "nee": 28200,
  "ĠDrag": 15467,
  "efficient": 22047,
  "rod": 16307,
  "Ġvariable": 9982,
  "UN": 8199,
  "Ġdinosaur": 25156,
  "cling": 7705,
  "Ġracism": 9022,
  "las": 12161,
  "secution": 16843,
  "ĠSaunders": 29496,
  "Ġsignature": 9972,
  "ĠFactor": 28955,
  "arcraft": 28981,
  "Ġ1880": 30478,
  "ĠCong": 2412,
  "Found": 25691,
  "ĠVega": 31788,
  "Aut": 18940,
  "Ġconsider": 2445,
  "Ġaudit": 13850,
  "Ġeighth": 14196,
  "Rick": 28426,
  "ĠHammond": 22424,
  "ĠDictionary": 29691,
  "luent": 23572,
  "Ġcarry": 3195,
  "Ġlucky": 8737,
  "Ġviolates": 20791,
  "ĠBabylon": 31959,
  "ername": 20249,
  "Ġlesbian": 15330,
  "Ġextremely": 4376,
  "Ġsites": 4532,
  "ĠHus": 12258,
  "Ġemployees": 3955,
  "Ġbarrage": 27855,
  "obs": 7791,
  "ĠAV": 20107,
  "ĠDame": 17557,
  "Ġmales": 11252,
  "ĠHanson": 29107,
  "ĠEverything": 11414,
  "ĠIde": 16514,
  "92": 9168,
  "Ġsprings": 27440,
  "ĠKiev": 18633,
  "ĠMachine": 15323,
  "Ġimper": 7309,
  "inese": 3218,
  "23": 3350,
  "Item": 21749,
  "Ġcircumvent": 27351,
  "ilingual": 31556,
  "ronics": 22768,
  "\".": 2785,
  "ĠTestament": 21889,
  "Ġignorance": 15784,
  "Ġreasonable": 7114,
  "Ġpulled": 5575,
  "Ġparadig": 16912,
  "wn": 629,
  "Ġpg": 31907,
  "ldom": 23751,
  "Ġswitch": 5535,
  "ĠGins": 31862,
  "porary": 5318,
  "Ġideals": 19056,
  "ĠDawkins": 30125,
  "iosity": 13727,
  "Ġexpenditures": 23356,
  "ĠAndrea": 20696,
  "ites": 2694,
  "eway": 17726,
  "px": 14592,
  "Ġorn": 25118,
  "Ġants": 25465,
  "Ġproves": 15631,
  "setting": 30465,
  "final": 18085,
  "Ġdelightful": 31870,
  "Ġamassed": 30167,
  "ingham": 19869,
  "filled": 18338,
  "Ġgates": 17888,
  "wp": 25893,
  "Ġbite": 13745,
  "Ġtheatre": 17452,
  "ĠZh": 13289,
  "ĠBri": 25442,
  "idering": 5026,
  "right": 2308,
  "ject": 751,
  "ĠMubarak": 24353,
  "vol": 12214,
  "Ġdecor": 12240,
  "Ġsexual": 3108,
  "Ġcounting": 13236,
  "ĠOrwell": 26169,
  "ace": 517,
  "SL": 9342,
  "emin": 11848,
  "Ġfunctional": 10220,
  "Ġnails": 24896,
  "Ġfearful": 24273,
  "co": 1264,
  "Ġleap": 14654,
  "major": 19377,
  "Ġjump": 3969,
  "Ġstressful": 24199,
  "Ġmeetings": 7057,
  "riors": 9775,
  "Ġbombings": 20894,
  "ĠBehind": 20836,
  "Authorities": 22184,
  "Ġsupervisor": 20033,
  "iggle": 26356,
  "Ġdomains": 20462,
  "Ġyear": 515,
  "rub": 28967,
  "ĠJewish": 4689,
  "ĠReady": 26338,
  "ĠAsia": 6279,
  "ĠSongs": 31648,
  "unior": 8308,
  "Ġinspections": 26868,
  "Ġtogether": 1861,
  "ĠCandy": 30300,
  "Ġnets": 27766,
  "ãģĻ": 22022,
  "ĠPony": 30748,
  "Wh": 1113,
  "Ġendure": 20486,
  "vette": 29984,
  "Ġincluding": 1234,
  "Ġarchitects": 22425,
  "olding": 27655,
  "ĠSullivan": 15975,
  "Ġ52": 8613,
  "Ġunspecified": 29504,
  "Ġtraps": 22313,
  "Ġeligible": 9753,
  "Ġsatell": 7366,
  "ocene": 28663,
  "Ġrelating": 13730,
  "Ġentreprene": 9269,
  "Ġbatter": 11072,
  "uting": 14894,
  "wise": 3451,
  "ĠHomeland": 14165,
  "Ġspare": 13669,
  "ĠLeadership": 25130,
  "ritis": 29206,
  "Lu": 24597,
  "ĠChick": 31358,
  "icus": 21857,
  "Ġ((": 23886,
  "Ġworsh": 28618,
  "otal": 6490,
  "Ġthorough": 9275,
  "Ġcompress": 30211,
  "ĠFurther": 8184,
  "Ġsecurity": 1968,
  "Ġindication": 11680,
  "Ġpulling": 9979,
  "Ġbacklog": 31384,
  "Action": 23869,
  "Ġredirect": 18493,
  "Ġserum": 28789,
  "ĠDraft": 12479,
  "Ġhemisphere": 28015,
  "ĠLibyan": 19380,
  "Ġsocietal": 22489,
  "hum": 15239,
  "ground": 2938,
  "Ġinfl": 6708,
  "Ġrebuilding": 19956,
  "Ġlacking": 13156,
  "Ġspans": 28644,
  "Ġna": 9764,
  "Ġrem": 765,
  "ĠWill": 2422,
  "EP": 7765,
  "ooks": 30544,
  "Ġjumps": 19164,
  "ĠHT": 7886,
  "icult": 2054,
  "Ġtedious": 29964,
  "ĠDOJ": 20275,
  "Ġpickup": 18515,
  "uild": 4085,
  "ail": 567,
  "alone": 17715,
  "Ġbeauty": 9044,
  "ĠFre": 7412,
  "Ġcross": 3222,
  "Ġinstallations": 23259,
  "alion": 19639,
  "riage": 3807,
  "ĠVen": 10600,
  "pleasant": 20722,
  "ĠStatistics": 16978,
  "Lin": 21114,
  "Ġprose": 23375,
  "Ġredundant": 28105,
  "Ġconcluding": 27323,
  "Ġconstitu": 10215,
  "Ġmajors": 22064,
  "ĠBarton": 27478,
  "Ġimpe": 14918,
  "Ġchrom": 17137,
  "Ġantagon": 22324,
  "Picture": 25839,
  "ioxide": 13768,
  "Ġdivest": 29413,
  "ills": 2603,
  "Ġtherapy": 9808,
  "Ġfashion": 6464,
  "ails": 1874,
  "DonaldTrump": 21848,
  "Ġstrik": 4386,
  "vertisements": 9646,
  "consuming": 30242,
  "Ġgraphene": 31222,
  "Russ": 8566,
  "Ġmon": 849,
  "Ġaccording": 1558,
  "short": 23463,
  "lower": 24649,
  "Never": 12812,
  "Previously": 30121,
  "Ġsecretive": 25609,
  "Ġdata": 1327,
  "constitutional": 15010,
  "Ġlegend": 7936,
  "ĠZelda": 22602,
  "Ġmechanism": 6449,
  "Ġprotocols": 18642,
  "ĠPal": 2695,
  "Ġcrackdown": 16855,
  "ĠManafort": 20480,
  "abase": 22242,
  "Ġnew": 554,
  "Ġlooked": 3244,
  "usion": 3929,
  "Ġparameter": 15682,
  "Ġbi": 2905,
  "regn": 27429,
  "Ġsupports": 6905,
  "Ġoverweight": 24786,
  "Ġundermine": 12978,
  "Ġsil": 3496,
  "BT": 20394,
  "Ġreversing": 31748,
  "Ġpos": 1328,
  "Ġsafeguards": 28085,
  "Ġfib": 13330,
  "Î²": 28389,
  "Ġbooks": 3610,
  "Ġregrets": 26205,
  "ingrich": 17636,
  "Ġreplacing": 11921,
  "dates": 24376,
  "ĠArmy": 4908,
  "Ġdue": 2150,
  "ĠEmirates": 20632,
  "ĠFreddie": 23383,
  "Ġanthrop": 16001,
  "ĠSomalia": 18194,
  "Ġdub": 9092,
  "ĠCrypt": 20361,
  "wi": 24730,
  "ĠCanal": 26716,
  "ĠButton": 29305,
  "Ġdemonstrating": 18576,
  "Ġrubbish": 29486,
  "redited": 19570,
  "Ġlaid": 7776,
  "Ġacquisitions": 29022,
  "ried": 2142,
  "Ġexceeds": 24828,
  "Ġcardiac": 26905,
  "ĠLevy": 26084,
  "ĠScots": 26274,
  "gay": 17893,
  "ĠFO": 11246,
  "oy": 691,
  "ĠCPS": 30659,
  "ĠMyers": 21807,
  "ĠYes": 4768,
  "Ġunrestricted": 30127,
  "Ġaggressive": 7330,
  "ĠKes": 25540,
  "ĠTE": 19361,
  "age": 461,
  "ĠBears": 12798,
  "Ø±": 19226,
  "ĠOver": 4508,
  "Ġtrim": 16789,
  "Ġrespectful": 22796,
  "ĠSony": 8617,
  "ĠPolit": 6789,
  "Hom": 29982,
  "Ġspeculative": 24627,
  "Ram": 29308,
  "ĠIsn": 23835,
  "late": 21758,
  "Ġcapacity": 5231,
  "Ġblasts": 28503,
  "Ġundermined": 23972,
  "wen": 20386,
  "Tech": 20144,
  "ĠNorway": 13028,
  "ĠAdmir": 21595,
  "encia": 22283,
  "ansom": 18125,
  "plant": 16065,
  "Ġunlawful": 19241,
  "ect": 480,
  "Ĩ": 185,
  "Ġapparent": 3785,
  "asy": 4470,
  "ORK": 16050,
  "Ġshouted": 17145,
  "Ġmember": 2778,
  "Ġastronauts": 20563,
  "enburg": 30835,
  "Ġrif": 8935,
  "business": 19755,
  "Ġmerit": 15875,
  "Steve": 17303,
  "ĠBet": 5686,
  "ĠCaesar": 25061,
  "Ġprecinct": 25533,
  "ĠTransfer": 27469,
  "xml": 28076,
  "Ġretali": 23916,
  "ĠQuran": 27552,
  "Ġpel": 16299,
  "Stream": 23087,
  "ĠVehicle": 28136,
  "ĠChapel": 29670,
  "time": 2367,
  "ĠTrump": 1043,
  "ĠBl": 1248,
  "CLOSE": 24278,
  "Ġoper": 1426,
  "Ġtransportation": 8614,
  "osevelt": 15316,
  "Ġreplicated": 30750,
  "Ġspokesperson": 8804,
  "days": 13781,
  "Ġlaugh": 6382,
  "ĠNI": 24251,
  "ĠJohannes": 30633,
  "ĠHair": 30089,
  "Ð½Ð¾": 27668,
  "Ġsomet": 978,
  "apture": 25845,
  "Ġfascinated": 25809,
  "Ġpasses": 7459,
  "forestation": 31477,
  "Ġobserv": 3779,
  "grand": 21989,
  "ĠCorn": 12975,
  "Reviewer": 29667,
  "etsk": 25098,
  "olan": 14235,
  "dding": 30488,
  "Ġvegetation": 26935,
  "SC": 9946,
  "ĠTang": 29132,
  "Ġgrips": 31264,
  "Ġsupporter": 12020,
  "Ġthou": 28819,
  "Ġorigin": 7349,
  "ĠDot": 20348,
  "Ġproductive": 10950,
  "Ġreferencing": 28008,
  "Ġconstituency": 21401,
  "EA": 7549,
  "ĠCarrie": 28682,
  "ĠBritt": 27414,
  "joy": 2685,
  "atell": 6455,
  "ĠTrip": 17999,
  "Ġtasks": 8297,
  "Ġmark": 1183,
  "opus": 27931,
  "Ġhel": 7409,
  "Ġlangu": 2595,
  "Ġdiseases": 9896,
  "ĠSilent": 28465,
  "Ġoverdue": 29917,
  "Ġante": 29463,
  "ĠEc": 13771,
  "Ġexpressing": 14404,
  "Ġanimation": 10992,
  "Ġspeakers": 10711,
  "amera": 18524,
  "Ġwhit": 19970,
  "Ġincub": 22858,
  "âĶĢâĶĢâĶĢâĶĢ": 20413,
  "ĠCreative": 16935,
  "Ġath": 5153,
  "Ġmagnificent": 24185,
  "cean": 5410,
  "ĠThread": 28062,
  "bered": 9619,
  "Ġ28": 3324,
  "Mond": 22685,
  "ĠCunningham": 28689,
  "ĠPhotoshop": 25527,
  "Ġconvin": 8002,
  "Fair": 29412,
  "ð": 171,
  "eligible": 29432,
  "ĠLowe": 27841,
  "Ġin": 243,
  "ipse": 16140,
  "Ġedges": 14056,
  "Ġauto": 9063,
  "Node": 29458,
  "ĠLego": 25521,
  "Ġcorridor": 19110,
  "oman": 4550,
  "Ġperfection": 21175,
  "din": 21072,
  "Ġ\\(": 21578,
  "ascal": 25305,
  "Ur": 20690,
  "ĠPlant": 20223,
  "icular": 22624,
  "Ġpage": 2827,
  "1992": 28916,
  "metic": 17928,
  "Ġevangel": 13367,
  "ĠScot": 5897,
  "audi": 27000,
  "ĠCards": 20596,
  "ĠSeriously": 26311,
  "autions": 30605,
  "ĠSinclair": 28690,
  "Ġarcade": 23776,
  "ĠRash": 23219,
  "Ġbuild": 1240,
  "ĠBor": 10899,
  "Ġflood": 6170,
  "isure": 21159,
  "game": 6415,
  "irie": 27027,
  "ther": 450,
  "Ġindicate": 7864,
  "Fun": 21909,
  "ĠKi": 17382,
  "Ġcontroller": 11328,
  "Mic": 22805,
  "Ġpublisher": 11681,
  "Ġtestosterone": 22936,
  "Ġvolunteered": 28467,
  "ĠKot": 21249,
  "Ġtemporarily": 12788,
  "Ġmasterpiece": 27080,
  "Ġschizophren": 19944,
  "Ġbeautiful": 5186,
  "ĠScala": 29395,
  "Good": 11156,
  "Ġapost": 20834,
  "Ġzoning": 24773,
  "iblical": 16069,
  "VID": 15247,
  "Ġpolar": 11440,
  "ĠKell": 19301,
  "ĠComcast": 17070,
  "Ġcompute": 24423,
  "ĠBike": 25443,
  "ĠpÃ¥": 30473,
  "LINE": 29658,
  "antom": 17902,
  "Ġdiam": 10137,
  "Ġsharks": 21615,
  "Ġsequence": 9084,
  "Ġcasc": 28129,
  "ranch": 22702,
  "Ġembarrass": 8568,
  "ĠSouls": 27867,
  "W": 55,
  "Az": 27735,
  "arden": 6264,
  "ĠEast": 3209,
  "Ġanalyses": 14044,
  "Ġadul": 18224,
  "Str": 21390,
  "Ġcolony": 17231,
  "Ġfirm": 3658,
  "Ġchairman": 6683,
  "ĠSims": 25113,
  "Ġramp": 8979,
  "Ġautomotive": 24874,
  "arters": 6041,
  "ud": 428,
  "Ġtours": 18401,
  "Ġappro": 1277,
  "displaystyle": 18528,
  "ĠRasm": 30581,
  "Ġtremend": 9532,
  "lig": 4782,
  "########": 14528,
  "ĠBrighton": 28511,
  "Ġcleared": 11542,
  "ĠSand": 3268,
  "Ġapproval": 6722,
  "Ġwidow": 24568,
  "ĠNASCAR": 23281,
  "Ġsway": 18462,
  "Ġnominal": 25833,
  "Ġcyclist": 27400,
  "ĠMall": 14853,
  "Ġmonopoly": 18441,
  "ĠMadison": 13042,
  "Ġ1995": 8766,
  "Ġsensor": 13081,
  "lease": 3597,
  "Ġconc": 3157,
  "ppers": 8694,
  "Ġloan": 7257,
  "kin": 4848,
  "Ġours": 15569,
  "Ġsarc": 23549,
  "Ġpredictive": 29841,
  "ĠOrig": 9079,
  "Ġremedies": 31845,
  "Ġclimate": 3177,
  "Ġstrengthened": 23684,
  "ĠRoth": 14631,
  "anies": 16768,
  "«": 105,
  "Ġopioid": 20375,
  "ĠLiverpool": 9226,
  "Ġgrounds": 8510,
  "ĠJeremy": 10870,
  "Ġcomponent": 7835,
  "ocated": 10692,
  "Ġbehaviour": 8223,
  "Ġgeographic": 22232,
  "Ġbattles": 9780,
  "Ġmarried": 5900,
  "Ġslices": 24745,
  "Ġderivative": 30471,
  "ranean": 14719,
  "asio": 22599,
  "Ġdelegate": 20439,
  "Ġhappiness": 11941,
  "Ġtool": 2831,
  "ĠCarson": 13489,
  "Ġscans": 22623,
  "Ġeclips": 31750,
  "ivable": 20950,
  "ansen": 29225,
  "Ġlaundry": 24178,
  "Ġcarbohyd": 26642,
  "Ġthose": 805,
  "ez": 7767,
  "Ġbottle": 9797,
  "Tax": 26445,
  "inges": 23847,
  "oin": 25714,
  "ef": 928,
  "Ġleague": 3579,
  "priced": 26706,
  "quer": 11804,
  "Ġtemple": 13452,
  "Ġenjoyable": 19561,
  "Ġdescend": 15215,
  "ĠDiaz": 21940,
  "ĠBhar": 26969,
  "icism": 9426,
  "Med": 12295,
  "Ġplag": 16135,
  "Welcome": 18583,
  "Ġgood": 885,
  "Ġyell": 10510,
  "Ġsensors": 13603,
  "ects": 11563,
  "ĠKremlin": 15502,
  "anas": 17697,
  "Ô": 143,
  "vity": 20105,
  "written": 12186,
  "isl": 2572,
  "rect": 2927,
  "Ġexceeding": 26035,
  "areth": 24089,
  "iveness": 6643,
  "ĠHawkins": 27142,
  "Ġunderlying": 9819,
  "ateful": 10874,
  "ĠCSS": 15201,
  "leg": 1312,
  "Ġpartner": 4870,
  "wered": 8581,
  "ĠGuild": 19061,
  "ĠAnthony": 8376,
  "ĠRussians": 10886,
  "lat": 18627,
  "ĠJuan": 14577,
  "Ġ1980": 5987,
  "ĠHastings": 31429,
  "Ġwelf": 8162,
  "ĠGreene": 24248,
  "utenant": 15072,
  "ni": 7374,
  "Redd": 19649,
  "independent": 31496,
  "Ġhanded": 8619,
  "Ġrunaway": 31675,
  "Ġpath": 3307,
  "ĠPhillip": 26060,
  "Ġantibodies": 30408,
  "Â»": 17032,
  "aw": 654,
  "ĠâĢľ[": 17780,
  "osterone": 20453,
  "Ġnumber": 1243,
  "ĠJinping": 29947,
  "ajor": 1308,
  "city": 20812,
  "leted": 11051,
  "Ġsightings": 29842,
  "Ġthrust": 18037,
  "ĠCyprus": 23645,
  "Ġcondolences": 30991,
  "ĠICE": 19874,
  "Ġsupposedly": 11398,
  "Ġlandsc": 21817,
  "ĠBrussels": 12694,
  "Ġcryptocurrencies": 25701,
  "ates": 633,
  "France": 23241,
  "Ïĥ": 27602,
  "Ġacknowledging": 21120,
  "ning": 682,
  "ĠRecent": 23055,
  "Ġadvoc": 4200,
  "mosp": 5705,
  "ĠDem": 1577,
  "Ġbid": 7005,
  "Ġmoney": 1377,
  "AW": 28529,
  "town": 10944,
  "ĠS": 276,
  "Ġtransport": 4608,
  "healthy": 20566,
  "Ġfal": 22344,
  "ĠDw": 16871,
  "Im": 3364,
  "ĠRud": 15267,
  "Ġviol": 1730,
  "Ġsweep": 15123,
  "Clinton": 12961,
  "anim": 10729,
  "Ġisolation": 13336,
  "ultz": 17458,
  "London": 21748,
  "ĠMitchell": 12044,
  "ĠâĻ": 31208,
  "Ġherbs": 27944,
  "orial": 4163,
  "Ġsurvived": 10622,
  "Ġendorse": 9770,
  "ĠHulk": 25561,
  "Ġreign": 11676,
  "ĠBright": 17308,
  "Ġcul": 9229,
  "Ġdisenfranch": 31165,
  "Ġdean": 28319,
  "Ġinvestigators": 8531,
  "Ġabsence": 8517,
  "ĠThere": 1299,
  "Ġcondoms": 31044,
  "Ġsociety": 3187,
  "Ġpraising": 26469,
  "Ġrookies": 29976,
  "Ġbanker": 27150,
  "uate": 4992,
  "lu": 2187,
  "Ġtopic": 6944,
  "Ġmisinformation": 26761,
  "Ġslaughter": 17130,
  "!'": 20490,
  "Ġforge": 27110,
  "Ġinstalled": 7499,
  "Ġdestro": 11304,
  "ĠJohns": 21537,
  "http": 4082,
  "Ġpad": 16265,
  "Ġprost": 10653,
  "ĠIdent": 17066,
  "Ġencoun": 5712,
  "ĠIsle": 30233,
  "European": 18424,
  "Ġfiercely": 29289,
  "ĠJake": 13162,
  "Ġdynamically": 30956,
  "duty": 23226,
  "ĠRES": 26346,
  "ĠJoined": 15460,
  "Ġconspic": 29491,
  "Put": 15196,
  "Ġsplit": 5777,
  "Ġbass": 12583,
  "Ġmomentum": 10568,
  "Ġrichest": 19625,
  "Ġpenalties": 12234,
  "ĠPrincess": 16414,
  "BLE": 25698,
  "ĠÐº": 21929,
  "ĠPhilip": 12785,
  "ĠKay": 16698,
  "ĠBorders": 31694,
  "ĠNebraska": 16347,
  "Ġborrowers": 24987,
  "VI": 16465,
  "querque": 29885,
  "agraph": 12188,
  "ovo": 15939,
  "Ġeagerly": 27987,
  "ĠSchwar": 23665,
  "ĠCosta": 16250,
  "ĠRabbit": 31056,
  "ĠThompson": 9984,
  "Michel": 30356,
  "Ġunaff": 23056,
  "Ġgarbage": 14071,
  "ogen": 7709,
  "ĠDefence": 14876,
  "outine": 30772,
  "Ġtransparent": 12717,
  "ĠAHL": 24588,
  "ogo": 23971,
  "Ġmulti": 5025,
  "Ġuntil": 1511,
  "Ġswitches": 20325,
  "az": 1003,
  "could": 20883,
  "bee": 20861,
  "Ġanticip": 7470,
  "ĠAnkara": 22436,
  "Would": 17942,
  "jug": 30524,
  "Ġmenstru": 31586,
  "Ġcancers": 24085,
  "ĠJapan": 2707,
  "Coming": 25334,
  "Ġcriticised": 16765,
  "ĠFinancial": 11454,
  "idd": 1602,
  "VD": 9595,
  "Ġrecord": 1490,
  "ĠCu": 15185,
  "Ġstern": 27035,
  "ĠRock": 4845,
  "Ġrelatives": 11729,
  "pert": 16269,
  "Ġdivorce": 13088,
  "ĠInto": 23899,
  "ĠAbdel": 27662,
  "Ġforced": 3609,
  "elman": 26559,
  "Ġpowerless": 30163,
  "Ġmanipulation": 16128,
  "adi": 9745,
  "allah": 20437,
  "ipped": 4441,
  "Ġexpert": 5300,
  "iciary": 12610,
  "Ġnomine": 6929,
  "uder": 27283,
  "ratory": 29916,
  "Ġbeaches": 21222,
  "Ġtorque": 27365,
  "ulators": 21625,
  "Ġintends": 16419,
  "Ġenabling": 15026,
  "ĠEvangel": 25400,
  "court": 17403,
  "Ġstock": 4668,
  "Ġoptimization": 23618,
  "Ġimage": 3019,
  "Ġ134": 31164,
  "Ġhaven": 3963,
  "Ġdistinguished": 19096,
  "Ġlanding": 9504,
  "Ġadopt": 10352,
  "icles": 3063,
  "sensitive": 28747,
  "ĠSubject": 24312,
  "Ġgonna": 7972,
  "ĠTort": 28968,
  "ĠAlison": 30212,
  "Ġreplay": 23028,
  "Ġfacebook": 27519,
  "lish": 2257,
  "ASHINGTON": 15202,
  "Real": 15987,
  "xit": 8587,
  "Ġconsent": 9521,
  "Ġinfrastructure": 5378,
  "Ġcouch": 18587,
  "hart": 17129,
  "earing": 7266,
  "Ġpads": 22514,
  "ĠCarn": 26249,
  "ĠPhone": 13751,
  "ĠCornell": 22732,
  "two": 11619,
  "ĠHansen": 22551,
  "many": 19052,
  "Ġobservation": 12964,
  "Ġsurvival": 9191,
  "FS": 11920,
  "Ġrip": 17938,
  "Ġreferenced": 20041,
  "Ġimprov": 27500,
  "ĠPlace": 11077,
  "Ġcomplex": 3428,
  "ĠBruno": 28099,
  "Ġorganisation": 10593,
  "Ġplaybook": 30583,
  "ĠUnd": 19818,
  "Ġshrimp": 29870,
  "ĠÃ®n": 24912,
  "Ġreductions": 18396,
  "anna": 8316,
  "ĠMell": 27557,
  "Ġsem": 5739,
  "ĠKeys": 27958,
  "inburgh": 18884,
  "Greg": 26499,
  "Ġjewelry": 23669,
  "Ġprescription": 14382,
  "ĠJessica": 16287,
  "wolf": 27095,
  "ÑģÐº": 27980,
  "arching": 31150,
  "Ġgive": 1559,
  "Ġinevitably": 14307,
  "ĠDarren": 21431,
  "Ġannoyed": 25357,
  "49": 4847,
  "Ġpron": 9510,
  "ĠRafael": 24663,
  "Ġgoodbye": 22722,
  "Ġdepressing": 25858,
  "Ġdedicated": 6608,
  "Ġenvironments": 11572,
  "Ġballoons": 29419,
  "Ġannoy": 10418,
  "Ġpapers": 8536,
  "Chris": 13785,
  "ĠOklahoma": 9415,
  "ĠKath": 15712,
  "gone": 18823,
  ")]": 29838,
  "ĠFigure": 12534,
  "»¿": 27356,
  "ĠChar": 3175,
  "Ġappeals": 12716,
  "Ġnude": 25189,
  "ĠAnat": 27442,
  "These": 4269,
  "wild": 22123,
  "ĠPurple": 27046,
  "Ġchooses": 19261,
  "Ġease": 9672,
  "Ġscoring": 7786,
  "Ġinstall": 4093,
  "Ġrhet": 8750,
  "ĠOperation": 14616,
  "stand": 1389,
  "Ġpra": 6162,
  "pper": 3294,
  "Ġnin": 9751,
  "ĠWis": 27454,
  "Ġwand": 14243,
  "Ġautom": 3673,
  "Ġenv": 15986,
  "sels": 8095,
  "ĠTwilight": 23465,
  "ĠSeason": 8524,
  ";[": 27825,
  "ĠUFO": 18960,
  "ulence": 30205,
  "something": 16879,
  "SE": 10416,
  "ĠDance": 21921,
  "Ġvow": 22422,
  "Ġreject": 4304,
  "Value": 20162,
  "ĠSafe": 21633,
  "ĠLok": 23878,
  "levard": 17993,
  "Ġmaple": 30975,
  "Ġblood": 3252,
  "enh": 23170,
  "Ġshooting": 3893,
  "Ġinduction": 29083,
  "rik": 8042,
  "retion": 14648,
  "ĠSaints": 12576,
  "Ġmetadata": 19765,
  "ection": 8596,
  "Children": 26645,
  "ĠTax": 10298,
  "ĠFriday": 2632,
  "Ġopen": 1193,
  "Better": 28939,
  "143": 31053,
  "Ġmemo": 9746,
  "Ġneighbouring": 23162,
  "ĠThing": 23112,
  "ĠChal": 29816,
  "fer": 2523,
  "Ġquestion": 1653,
  "Ġpromises": 8797,
  "Ġshop": 6021,
  "ĠL": 387,
  "Ġdead": 2520,
  "Ġliterary": 13843,
  "ĠDial": 27764,
  "Ġtape": 8908,
  "ĠIndigenous": 18959,
  "ends": 2552,
  "Ġformed": 6506,
  "Ġfi": 28410,
  "Ġdisturb": 9322,
  "Ġinj": 2315,
  "Ġzombies": 21835,
  "ĠBerry": 21759,
  "Ġclar": 9133,
  "activity": 23725,
  "Ġinvestigate": 8264,
  "Ġsubst": 3392,
  "Ġsatir": 24084,
  "ĠWHO": 20002,
  "Ġpublications": 14830,
  "sterdam": 20468,
  "AY": 9959,
  "arian": 3377,
  "ĠOrb": 25224,
  "negie": 26204,
  "ĠCount": 2654,
  "Ġdebug": 29207,
  "Ġunreasonable": 23475,
  "ĠQuebec": 11820,
  "Ġconfirm": 5943,
  "Ġrelocate": 29217,
  "Ġearlier": 2518,
  "Ġproposes": 22146,
  "ibal": 18974,
  "Ġster": 15572,
  "Ġstature": 29514,
  "Ġdistant": 12317,
  "Ġautomated": 14646,
  "Ġnotification": 16673,
  "ADVERTIS": 12976,
  "Ġtweet": 4910,
  "Ġchecking": 10811,
  "ĠAdvis": 17025,
  "ĠVac": 30612,
  "Ġju": 7830,
  "MW": 31712,
  "walk": 9309,
  "Ġchat": 7481,
  "Ġvaccines": 17043,
  "¦": 100,
  "ĠCamp": 5244,
  "ĠLear": 10439,
  "Ġgenetically": 18164,
  "ĠRem": 5522,
  "All": 3446,
  "ĠWide": 25863,
  "Ġdispens": 14389,
  "ĠKeystone": 23401,
  "Ġaura": 29591,
  "Ã¶": 6325,
  "ĠThatcher": 25123,
  "Ġmascul": 17913,
  "Ġfrost": 30378,
  "ĠLin": 5872,
  "IX": 15092,
  "Ġmoved": 3497,
  "Ġorganisations": 13238,
  "sl": 9662,
  "36": 4336,
  "Ġcovering": 8724,
  "Several": 12183,
  "must": 28231,
  "Ġvotes": 5115,
  "ĠTelevision": 17196,
  "Ġglow": 21450,
  "bike": 27923,
  "ĠBMI": 31130,
  "ote": 1927,
  "Ġeducated": 13387,
  "Ġabsolutely": 5163,
  "Guard": 25623,
  "ww": 2118,
  "Ġpredomin": 14171,
  "Ġdeserves": 11728,
  "Ġdas": 25187,
  "Ġadjacent": 16377,
  "Hist": 12263,
  "Ġraping": 29579,
  "Ġaltitude": 19801,
  "purpose": 28908,
  "Mu": 31591,
  "viron": 2041,
  "ĠJedi": 20750,
  "olicy": 23988,
  "bands": 21196,
  "Ġundergoing": 20231,
  "Ġstrapped": 31970,
  "Ġskip": 15756,
  "ĠStage": 19539,
  "Mayor": 28284,
  "Ġtunes": 27972,
  "Ġclicks": 24681,
  "ico": 3163,
  "Ġcolors": 8635,
  "ĠLater": 10854,
  "Ġdire": 4098,
  "ordering": 30818,
  "Ġchest": 9522,
  "Ġvar": 1460,
  "ĠAvengers": 19515,
  "they": 9202,
  "Ġinvestigative": 16462,
  "Ġantit": 22233,
  "years": 19107,
  "ĠWen": 31234,
  "\"),": 18664,
  "Cru": 22840,
  "Ġspices": 29566,
  "ĠMilan": 16577,
  "Ġcrossed": 11536,
  "ash": 1100,
  "Ġfunds": 4855,
  "Ġfantas": 21918,
  "ĠCran": 30817,
  "ĠAlive": 31173,
  "Ġtoken": 12578,
  "ĠMonth": 17790,
  "iners": 18207,
  "Ġsquee": 13030,
  "Ġmoves": 6159,
  "Ġsingled": 26190,
  "Ġfilled": 5972,
  "Ġlied": 17169,
  "Online": 21539,
  "Ġthereby": 12984,
  "Ġrepeal": 10987,
  "retch": 30183,
  "Jay": 26715,
  "Ġdep": 1174,
  "Ġsafest": 30933,
  "Ġartillery": 17818,
  "Ġlegalized": 24492,
  "Ġremoval": 10062,
  "Ġdystop": 30182,
  "ĠMonica": 21034,
  "Ġmalt": 28225,
  "Ġcort": 21707,
  "igned": 4088,
  "iser": 5122,
  "ĠAssistant": 15325,
  "ĠJoh": 13965,
  "Base": 23187,
  "pc": 19481,
  "Ġspeeds": 11430,
  "###": 30889,
  "ĠHolocaust": 15579,
  "ĠEngineer": 28846,
  "oor": 2830,
  "Ġrelegated": 27565,
  "ohn": 1369,
  "Ġlb": 20892,
  "Ġinf": 1131,
  "omical": 20178,
  "ĠBlue": 6158,
  "opian": 31372,
  "ĠManuel": 20951,
  "Ġtackled": 28378,
  "Ġ||": 17333,
  "ĠTurner": 12930,
  "ĠWard": 11930,
  "payer": 26301,
  "father": 10583,
  "Ġcomo": 31517,
  "Ġalter": 9489,
  "ĠVancouver": 8608,
  "ordon": 8695,
  "ĠFOR": 11603,
  "Ġ1963": 17254,
  "Ġconfirmation": 12198,
  "ĠSome": 2731,
  "Ġtrainers": 27045,
  "Ġyesterday": 6119,
  "Ġprogrammed": 25569,
  "Ġviewpoint": 26050,
  "Ñİ": 23965,
  "Ġ145": 26940,
  "Ġpen": 3100,
  "evil": 23929,
  "Ġblacks": 13796,
  "flation": 28702,
  "Ġatheism": 29425,
  "ĠSocial": 5337,
  "Ġcurrents": 26765,
  "Ġinnovation": 8784,
  "Ġglory": 14867,
  "thread": 25659,
  ",[": 5614,
  "ising": 1502,
  "iga": 14274,
  "phil": 29087,
  "ĠScale": 26670,
  "Ġhalt": 14133,
  "Bl": 4573,
  "ORT": 14295,
  "ĠFocus": 19062,
  "ursed": 31059,
  "Ġblessing": 19438,
  "ĠSig": 21376,
  "ĠHod": 19140,
  "ĠNintendo": 9114,
  "Pol": 6379,
  "anguage": 11226,
  "ighteous": 18818,
  "anic": 25494,
  "aliation": 19568,
  "ĠWeek": 6143,
  "ĠFl": 1872,
  "ĠWWE": 13080,
  "Ġgrace": 13369,
  "rary": 7087,
  "ancies": 15952,
  "ĠKauf": 31841,
  "Ġaccur": 4672,
  "Ġabolish": 29321,
  "Ġnatural": 3230,
  "la": 4175,
  "seless": 11589,
  "letes": 30506,
  "Ġchased": 23732,
  "Ġlicens": 8440,
  "law": 6175,
  "Ġgoddess": 25743,
  "Ľ": 206,
  "Ġunwanted": 19534,
  "ĠGoals": 30092,
  "retty": 17896,
  "akable": 28920,
  "Ġfore": 1538,
  "RELATED": 15648,
  "Ġarrogance": 29528,
  "ĠLimbaugh": 26505,
  "ĠSports": 6303,
  "Star": 8048,
  "Islam": 13497,
  "ces": 685,
  "Ġdefault": 5706,
  "ridge": 12446,
  "Ġyearly": 23189,
  "ĠPav": 22860,
  "phas": 5379,
  "member": 16833,
  "iscal": 7375,
  "ĠHubbard": 28053,
  "ĠOrleans": 10467,
  "Ġdefenseman": 23312,
  "Ġstresses": 26326,
  "Ġderived": 12110,
  "ĠPenny": 25757,
  "Ġbuildings": 5983,
  "Ġpowerful": 3595,
  "Ġcodes": 13271,
  "Ġbug": 6395,
  "Ġoddly": 28322,
  "Ġburg": 14162,
  "ĠCond": 14658,
  "ested": 10209,
  "Ġ170": 20214,
  "Ġregener": 27304,
  "Ġlayout": 13434,
  "Ġdrives": 9533,
  "ĠÂ£": 3683,
  "Ġprevented": 11955,
  "Ġvoyage": 28705,
  "Ġreturn": 1573,
  "ndra": 18943,
  "ĠSenator": 7488,
  "Ġmodifying": 31930,
  "ret": 1191,
  "ĠAv": 5951,
  "Ð°": 4659,
  "ĠVolkswagen": 26367,
  "ex": 1096,
  "Cook": 31327,
  "ĠDoor": 28975,
  "ĠVienna": 20703,
  "Ġidentify": 5566,
  "Ġoffer": 2765,
  "Ġcoup": 10187,
  "Ġcheat": 23262,
  "Ġhigh": 960,
  "Ġethn": 29144,
  "Ġaffluent": 26968,
  "Ġpromo": 31939,
  "Ġlean": 11239,
  "ident": 620,
  "Ġrhetoric": 9969,
  "ï¿½": 6876,
  "ĠArgentine": 27024,
  "Ġhandgun": 16333,
  "Ġdupl": 15787,
  "Ġempower": 14795,
  "Ġpony": 24768,
  "robe": 27372,
  "Ġcorrespondence": 21335,
  "ispens": 30255,
  "lud": 712,
  "Ġscrew": 11137,
  "Ġassurance": 26815,
  "Ġpriv": 1728,
  "Ġpeasants": 30234,
  "Ġearn": 5265,
  "Ġpoliticians": 5536,
  "Ġscreenshots": 22358,
  "essee": 9518,
  "Ġobjective": 9245,
  "riend": 1256,
  "Ġsided": 30049,
  "Ġmeasure": 3790,
  "apor": 14378,
  "ns": 2451,
  "edIn": 16656,
  "porting": 19918,
  "video": 20891,
  "Ġimbalance": 29203,
  "ko": 6640,
  "ĠPakistani": 13161,
  "ars": 905,
  "Ġaudience": 4389,
  "Ġaftermath": 13089,
  "Ġhash": 14974,
  "Ġcompass": 31180,
  "Ġfiber": 14446,
  "Ġ`": 10997,
  "Ġcitiz": 3030,
  "Small": 24444,
  "Ġgraduate": 9456,
  "htm": 27998,
  "Ġsidewalks": 30948,
  "ĠBangl": 14674,
  "ific": 811,
  "Incre": 24990,
  "Ġdiscredit": 27880,
  "ĠTW": 20443,
  "Ġspecimens": 26498,
  "ont": 791,
  "Ġdev": 1587,
  "ĠNR": 23058,
  "Organ": 24270,
  "Mor": 17466,
  "Ġwide": 2893,
  "lee": 9601,
  "ĠEmergency": 18520,
  "fax": 19460,
  "ĠðŁĻĤ": 28960,
  "Ġcontacts": 13153,
  "Į": 191,
  "Ġbridges": 17249,
  "Ġdial": 5963,
  "Ġlegislative": 9326,
  "Ġcommentator": 21568,
  "ĠAwesome": 31102,
  "ĠAdventure": 19190,
  "Ġunable": 5821,
  "Ġunivers": 5109,
  "ighteen": 25781,
  "pecting": 30403,
  "Ġexists": 7241,
  "Ġloop": 10232,
  "ĠRand": 7884,
  "4": 20,
  "terior": 14982,
  "ĠTreatment": 29411,
  "Ġconsultation": 17542,
  "Ġsensory": 22726,
  "itt": 4630,
  "Ġhover": 19860,
  "aucuses": 27321,
  "ĠNec": 27715,
  "Ġassert": 8910,
  "ĠPub": 18250,
  "Ġconnect": 2062,
  "idable": 21443,
  "Ġadvisors": 27852,
  "markets": 28473,
  "Ġworked": 2679,
  "Ġbolst": 28313,
  "Ġfulfilled": 23744,
  "Ġdrafts": 25434,
  "ĠBoost": 28845,
  "ict": 664,
  "ĠStrat": 23498,
  "Ġobserving": 20396,
  "Ġproblematic": 13836,
  "Tom": 12980,
  "ĠHim": 17135,
  "Ġalternate": 13972,
  "ĠKate": 15765,
  "ĠCairo": 18075,
  "Ġpromotional": 17125,
  "urb": 4539,
  "Ġlines": 3810,
  "ĠRange": 19725,
  "gs": 14766,
  "Ġworks": 2453,
  "level": 4388,
  "Ġfixes": 15910,
  "ĠCout": 30358,
  "Ġcamping": 22921,
  "castle": 14979,
  "Ġbased": 1829,
  "oppy": 28214,
  "onda": 11945,
  "Ġconfident": 5797,
  "ĠMiddle": 5235,
  "loving": 28469,
  "ors": 617,
  "Texas": 17794,
  "Ġcriticisms": 19885,
  "mitt": 18729,
  "Ġleftist": 21269,
  "Ġspur": 22816,
  "ĠFam": 16558,
  "Ġrevisit": 26838,
  "Ġshipments": 25720,
  "ĠComments": 23451,
  "ĠDemocracy": 16858,
  "anco": 25615,
  "Space": 17658,
  "ĠGetting": 18269,
  "Ġdrank": 24510,
  "ĠGriffin": 14676,
  "Ġdeal": 1516,
  "Ġhorrified": 28786,
  "ĠSega": 28007,
  "Ġpatriarch": 26428,
  "Canadian": 23016,
  "Ġlook": 755,
  "ayson": 28036,
  "Ġdisse": 20893,
  "ĠMu": 7708,
  "ĠStrength": 29154,
  "ruption": 5596,
  "Ġpent": 21361,
  "à¤": 10503,
  "ranged": 31202,
  "ĠFear": 19433,
  "Ġinstances": 10157,
  "ĠWh": 825,
  "Ġport": 2566,
  "Equ": 28252,
  "ĠSession": 30895,
  "Ġparcel": 23881,
  "Ġemploying": 23512,
  "Ġwarriors": 20424,
  "Ġoutper": 31515,
  "Ġimmediate": 6479,
  "impl": 31916,
  "ĠUSB": 10850,
  "ĠBatman": 9870,
  "ple": 1201,
  "Ġwisdom": 11468,
  "including": 8421,
  "ĠIM": 10635,
  "imm": 8189,
  "Ġfeminists": 19298,
  "ĠGallery": 13910,
  "Ġcorrection": 18027,
  "ushing": 14978,
  "Ġhint": 8713,
  "rency": 4978,
  "Ġstaring": 17445,
  "partisan": 21096,
  "itute": 3399,
  "122": 26721,
  "Ġcoordination": 18237,
  "everal": 7492,
  "Ġgrateful": 12567,
  "Ġsa": 400,
  "Ġmagnet": 19104,
  "Ġtant": 20470,
  "Ġtheoret": 11384,
  "Google": 9710,
  "inst": 10682,
  "arents": 13005,
  "burn": 11788,
  "bern": 27047,
  "Ġgot": 1189,
  "Ġexercise": 5999,
  "render": 13484,
  "ĠPatriots": 11496,
  "duino": 26122,
  "ĠZomb": 22169,
  "Ġstagn": 18635,
  "Ġintrinsic": 26549,
  "ĠTon": 17725,
  "Ġendeav": 21596,
  "Ġchambers": 21626,
  "Ġmathemat": 10643,
  "ĠfÃ¼r": 30709,
  "Ġaforementioned": 18276,
  "Mind": 27889,
  "iminal": 3362,
  "Leaks": 12081,
  "WA": 13598,
  "arthed": 30752,
  "Ġperce": 16031,
  "ilipp": 7812,
  "ĠDuke": 10665,
  "Ġurging": 13365,
  "ĠNewsletter": 25388,
  "abortion": 25337,
  "Ġwedd": 9182,
  "ategory": 16972,
  "Ġtim": 4686,
  "Ġdecentral": 16739,
  "fitting": 30069,
  "ds": 10009,
  "Ġspect": 4990,
  "Ġpresum": 8485,
  "September": 19508,
  "Ġdependency": 20552,
  "Ġobsess": 21462,
  "Ġenergy": 2333,
  "si": 16368,
  "Ġunderway": 13892,
  "rit": 667,
  "Ġevery": 738,
  "Ġallot": 27641,
  "ĠDebbie": 26038,
  "Ġartificial": 10317,
  "Ġsuddenly": 6860,
  "agic": 9024,
  "iots": 13659,
  "Ġcryptocur": 12878,
  "Energy": 31113,
  "ĠDRM": 31706,
  "Ġtrustworthy": 31679,
  "Ġtestament": 24156,
  "ancouver": 8180,
  "acebook": 2265,
  "aed": 7485,
  "gary": 12129,
  "con": 1012,
  "ĠWalker": 8364,
  "Tra": 25646,
  "ĠBlocked": 23048,
  "ĠEST": 20036,
  "Ġeye": 4049,
  "Ġredist": 15089,
  "atible": 24147,
  "Ġbrig": 20701,
  "iza": 21881,
  "Ġvocal": 10402,
  "Ġshocked": 10384,
  "ĠGoogle": 2631,
  "Although": 6063,
  "Ġcollection": 4937,
  "ĠREST": 31122,
  "Ġdisli": 28042,
  "lic": 596,
  "ĠIQ": 17824,
  "Ġpioneering": 28433,
  "Ġrespects": 18286,
  "uted": 8720,
  "Our": 4806,
  "Fin": 19802,
  "middle": 26296,
  "gged": 10909,
  "Ġselective": 20545,
  "Ġexploited": 17617,
  "129": 25895,
  "Federal": 21583,
  "ĠCons": 3427,
  "Ġrefreshing": 21180,
  "Ġire": 30643,
  "Ġbeam": 18773,
  "Ĳ": 195,
  "ĠYahoo": 12997,
  "ĠBrewery": 26149,
  "âĢ¦]": 21510,
  "Ã¤r": 26763,
  "F": 38,
  "Ġcommercial": 4527,
  "Plan": 20198,
  "Ġhars": 30600,
  "Ġinmates": 13655,
  "ĠAwards": 12542,
  "ac": 269,
  "Ġsinger": 11152,
  "Ġabandoned": 8867,
  "ĠPhilly": 25978,
  "Ġideas": 3712,
  "itals": 7490,
  "Ġdispensaries": 26991,
  "avour": 31197,
  "Ġimages": 4146,
  "Ġgubernatorial": 31887,
  "hement": 29070,
  "Request": 28219,
  "Ġdiscont": 15741,
  "Ġexplained": 4274,
  "Ġzone": 5698,
  "Ġestablishes": 31724,
  "Ġpuls": 22139,
  "Ġgrowers": 28116,
  "Ġaltering": 27591,
  "Ġplac": 23178,
  "Ġlifespan": 29827,
  "Ġmasculinity": 28259,
  "ultan": 24930,
  "Ġinstance": 4446,
  "ĠCer": 21603,
  "ĠJeb": 19617,
  "opa": 29109,
  "ĠAdv": 9260,
  "Ġlobbied": 29921,
  "Index": 27410,
  "ĠBenef": 25200,
  "ura": 7137,
  "Ġmedical": 3081,
  "Newsletter": 26028,
  "ĠAlbany": 25450,
  "je": 13691,
  "ĠCorporation": 11245,
  "Eventually": 24002,
  "Ġresponding": 12230,
  "report": 26144,
  "Ġchefs": 30514,
  "osis": 6927,
  "Ġadvertisement": 12269,
  "ĠHonduras": 26224,
  "iny": 3767,
  "Time": 10287,
  "ĠMarathon": 22652,
  "ĠResp": 12276,
  "Ġdegener": 31269,
  "Ġstreets": 5287,
  "charg": 11490,
  "ories": 1648,
  "German": 13841,
  "ĠKnowing": 29352,
  "ĠCommissioner": 12127,
  "mut": 19506,
  "Ġchief": 3305,
  "ĠAx": 15021,
  "ĠHealth": 4174,
  "Ġaccessing": 20948,
  "Ġadjustments": 17386,
  "Ġtrib": 6211,
  "Ġaccurate": 7270,
  "ĠSpring": 8392,
  "ilian": 31504,
  "Jes": 21693,
  "ĠOh": 4117,
  "Ġpatterns": 7546,
  "ĠManual": 28283,
  "ĠHAVE": 27242,
  "ĠRs": 10507,
  "ĠEat": 29720,
  "ĠRodgers": 15992,
  "inness": 24465,
  "âĦ¢": 12502,
  "ĠTitle": 14764,
  "Ġoffered": 4035,
  "Ġuninsured": 26697,
  "Ġiss": 1081,
  "ĠLiter": 20127,
  "Ġvent": 10913,
  "Ġsan": 4707,
  "ĠTru": 15391,
  "authored": 31808,
  "INAL": 29060,
  "teen": 7076,
  "Ġfighting": 3906,
  "ĠLund": 28199,
  "ĠAward": 9236,
  "Ġwishes": 13006,
  "Ġmeat": 6507,
  "Ġglad": 10228,
  "ĠScientists": 20071,
  "ĠUnfortunately": 8778,
  "Ġplugged": 29850,
  "Ġscratch": 12173,
  "Ġtoll": 12042,
  "ĠEpisode": 15865,
  "Ġpetty": 23457,
  "atz": 23046,
  "ĠSteel": 10603,
  "Ġmosques": 25766,
  "Ġlegs": 8370,
  "ethical": 26848,
  "Ġslapped": 27853,
  "Ġbrain": 3466,
  "Ġrugby": 16417,
  "Ġfortun": 14909,
  "ally": 411,
  "Ġder": 4285,
  "Ġdeputy": 8249,
  "cip": 24705,
  "ĠIke": 31840,
  "ĠTurk": 7074,
  "Recent": 24942,
  "ĠAnaly": 16197,
  "Ġphotography": 14268,
  "Ġportable": 17756,
  "braska": 15486,
  "ĠSell": 27699,
  "Ġimagining": 30146,
  "Ġdock": 22090,
  "atered": 28695,
  "Ġnarciss": 23811,
  "Ġachie": 3086,
  "ĠLGBTQ": 19492,
  "Ġcage": 17490,
  "Ġcompr": 12050,
  "ĠEarth": 3774,
  "ĠPract": 17201,
  "Ġfound": 988,
  "Ġvintage": 20167,
  "Ð±": 21688,
  "osta": 31266,
  "Ġresemble": 20652,
  "Ġweaknesses": 18030,
  "ĠCustoms": 21669,
  "ĠTerms": 30579,
  "order": 2812,
  "ĠAngel": 3782,
  "bral": 25667,
  "Ġadvance": 5677,
  "Ġfigured": 10855,
  "ĠSerb": 19637,
  "rient": 8158,
  "Ġassociation": 8097,
  "ĠRate": 25177,
  "Ġrocky": 23748,
[...]
